node {
  name: "global_step/Initializer/zeros"
  op: "Const"
  attr {
    key: "_class"
    value {
      list {
        s: "loc:@global_step"
      }
    }
  }
  attr {
    key: "_output_shapes"
    value {
      list {
        shape {
        }
      }
    }
  }
  attr {
    key: "dtype"
    value {
      type: DT_INT64
    }
  }
  attr {
    key: "value"
    value {
      tensor {
        dtype: DT_INT64
        tensor_shape {
        }
        int64_val: 0
      }
    }
  }
}
node {
  name: "global_step"
  op: "VarHandleOp"
  attr {
    key: "_class"
    value {
      list {
        s: "loc:@global_step"
      }
    }
  }
  attr {
    key: "_output_shapes"
    value {
      list {
        shape {
        }
      }
    }
  }
  attr {
    key: "container"
    value {
      s: ""
    }
  }
  attr {
    key: "dtype"
    value {
      type: DT_INT64
    }
  }
  attr {
    key: "shape"
    value {
      shape {
      }
    }
  }
  attr {
    key: "shared_name"
    value {
      s: "global_step"
    }
  }
}
node {
  name: "global_step/IsInitialized/VarIsInitializedOp"
  op: "VarIsInitializedOp"
  input: "global_step"
  attr {
    key: "_output_shapes"
    value {
      list {
        shape {
        }
      }
    }
  }
}
node {
  name: "global_step/Assign"
  op: "AssignVariableOp"
  input: "global_step"
  input: "global_step/Initializer/zeros"
  attr {
    key: "dtype"
    value {
      type: DT_INT64
    }
  }
}
node {
  name: "global_step/Read/ReadVariableOp"
  op: "ReadVariableOp"
  input: "global_step"
  attr {
    key: "_output_shapes"
    value {
      list {
        shape {
        }
      }
    }
  }
  attr {
    key: "dtype"
    value {
      type: DT_INT64
    }
  }
}
node {
  name: "global_step/VarIsInitializedOp"
  op: "VarIsInitializedOp"
  input: "global_step"
  attr {
    key: "_output_shapes"
    value {
      list {
        shape {
        }
      }
    }
  }
}
node {
  name: "global_step/cond"
  op: "If"
  input: "global_step/VarIsInitializedOp"
  input: "global_step"
  input: "global_step/Initializer/zeros"
  attr {
    key: "Tcond"
    value {
      type: DT_BOOL
    }
  }
  attr {
    key: "Tin"
    value {
      list {
        type: DT_RESOURCE
        type: DT_INT64
      }
    }
  }
  attr {
    key: "Tout"
    value {
      list {
        type: DT_INT64
      }
    }
  }
  attr {
    key: "_lower_using_switch_merge"
    value {
      b: true
    }
  }
  attr {
    key: "_output_shapes"
    value {
      list {
        shape {
        }
      }
    }
  }
  attr {
    key: "else_branch"
    value {
      func {
        name: "global_step_cond_false_14933"
      }
    }
  }
  attr {
    key: "output_shapes"
    value {
      list {
        shape {
        }
      }
    }
  }
  attr {
    key: "then_branch"
    value {
      func {
        name: "global_step_cond_true_14932"
      }
    }
  }
}
node {
  name: "global_step/cond/Identity"
  op: "Identity"
  input: "global_step/cond"
  attr {
    key: "T"
    value {
      type: DT_INT64
    }
  }
  attr {
    key: "_output_shapes"
    value {
      list {
        shape {
        }
      }
    }
  }
}
node {
  name: "global_step/add/y"
  op: "Const"
  attr {
    key: "_output_shapes"
    value {
      list {
        shape {
        }
      }
    }
  }
  attr {
    key: "dtype"
    value {
      type: DT_INT64
    }
  }
  attr {
    key: "value"
    value {
      tensor {
        dtype: DT_INT64
        tensor_shape {
        }
        int64_val: 0
      }
    }
  }
}
node {
  name: "global_step/add"
  op: "AddV2"
  input: "global_step/cond/Identity"
  input: "global_step/add/y"
  attr {
    key: "T"
    value {
      type: DT_INT64
    }
  }
  attr {
    key: "_output_shapes"
    value {
      list {
        shape {
        }
      }
    }
  }
}
node {
  name: "normalize_element/Const"
  op: "Const"
  device: "/device:CPU:0"
  attr {
    key: "_output_shapes"
    value {
      list {
        shape {
          dim {
            size: 627
          }
        }
      }
    }
  }
  attr {
    key: "dtype"
    value {
      type: DT_DOUBLE
    }
  }
  attr {
    key: "value"
    value {
      tensor {
        dtype: DT_DOUBLE
        tensor_shape {
          dim {
            size: 627
          }
        }
        tensor_content: "\000\000\000\000\000\0006@\000\000\000\000\000\000C@\000\000\000\000\000\000:@\000\000\000\000\000\200A@\000\000\000\000\000\000<@\000\000\000\000\000\000\000@\000\000\000\000\000\000;@\000\000\000\000\000\000,@\000\000\000\000\000\000\020@\000\000\000\000\000\0004@\000\000\000\000\000\200C@\000\000\000\000\000\000,@\000\000\000\000\000\000\000@\000\000\000\000\000\000<@\000\000\000\000\000\000?@\000\000\000\000\000\000<@\000\000\000\000\000\200A@\000\000\000\000\000\000<@\000\000\000\000\000\000C@\000\000\000\000\000\000<@\000\000\000\000\000\0003@\000\000\000\000\000\000<@\000\000\000\000\000\000<@\000\000\000\000\000\000D@\000\000\000\000\000\000<@\000\000\000\000\000\000<@\000\000\000\000\000\200P@\000\000\000\000\000\000<@\000\000\000\000\000\000E@\000\000\000\000\000\000<@\000\000\000\000\000\000,@\000\000\000\000\000\000D@\000\000\000\000\000\000;@\000\000\000\000\000\000<@\000\000\000\000\000\000\010@\000\000\000\000\000\000<@\000\000\000\000\000\000<@\000\000\000\000\000\000<@\000\000\000\000\000\0002@\000\000\000\000\000\000\034@\000\000\000\000\000\200H@\000\000\000\000\000\000=@\000\000\000\000\000@P@\000\000\000\000\000\000<@\000\000\000\000\000\0005@\000\000\000\000\000\200<@\000\000\000\000\000\000&@\000\000\000\000\000\0006@\000\000\000\000\000\000C@\000\000\000\000\000\200F@\000\000\000\000\000\000\020@\000\000\000\000\000\000<@\000\000\000\000\000\0003@\000\000\000\000\000\0001@\000\000\000\000\000\000:@\000\000\000\000\000\000@@\000\000\000\000\000\0005@\000\000\000\000\000\000@@\000\000\000\000\000\0009@\000\000\000\000\000\000<@\000\000\000\000\000\000<@\217\302\365(\\\217\352?\000\000\000\000\000\000>@\000\000\000\000\000\0006@\000\000\000\000\000\000=@\000\000\000\000\000\000<@\000\000\000\000\000\000<@\000\000\000\000\000\0000@\000\000\000\000\000\000<@\000\000\000\000\000\0007@\000\000\000\000\000\0008@\000\000\000\000\000\000G@\000\000\000\000\000\200M@\000\000\000\000\000\000<@\000\000\000\000\000\300Q@\000\000\000\000\000\0007@\000\000\000\000\000\000A@\000\000\000\000\000\000A@\000\000\000\000\000\000<@\000\000\000\000\000\000<@\000\000\000\000\000\0005@\000\000\000\000\000\200@@\000\000\000\000\000\200B@\000\000\000\000\000\000<@\000\000\000\000\000\000<@\000\000\000\000\000\000<@\000\000\000\000\000\200G@\000\000\000\000\000\000-@\000\000\000\000\000\0006@\000\000\000\000\000\0001@\000\000\000\000\000\0005@\000\000\000\000\000\240Q@\000\000\000\000\000\000=@\000\000\000\000\000\0008@\000\000\000\000\000\000<@\000\000\000\000\000@@@\000\000\000\000\000@@@\000\000\000\000\000\000<@\000\000\000\000\000\0008@\000\000\000\000\000\200F@\000\000\000\000\000\0004@\000\000\000\000\000\200G@\000\000\000\000\000\0007@\000\000\000\000\000\0003@\000\000\000\000\000\200B@\000\000\000\000\000\0000@\000\000\000\000\000\0008@\000\000\000\000\000\000<@\000\000\000\000\000\0006@\000\000\000\000\000\0003@\000\000\000\000\000\0002@\000\000\000\000\000\000\"@\000\000\000\000\000\200I@\000\000\000\000\000\300K@\000\000\000\000\000@D@\000\000\000\000\000\000<@\000\000\000\000\000\200I@\000\000\000\000\000\0000@\000\000\000\000\000\000<@\000\000\000\000\000\000<@\000\000\000\000\000\000F@\000\000\000\000\000\000:@\000\000\000\000\000\0001@\000\000\000\000\000\000\360?\000\000\000\000\000\000<@\000\000\000\000\000\000<@\000\000\000\000\000\000\020@\000\000\000\000\000\0002@\000\000\000\000\000\000<@\000\000\000\000\000\000I@\000\000\000\000\000\000>@\000\000\000\000\000\000B@\000\000\000\000\000\000<@\000\000\000\000\000\000<@\000\000\000\000\000\000\"@\000\000\000\000\000\000\020@\000\000\000\000\000\000<@\000\000\000\000\000\200F@\000\000\000\000\000\000B@\000\000\000\000\000\000@@\000\000\000\000\000\0003@\000\000\000\000\000\000\010@\000\000\000\000\000\000F@\000\000\000\000\000\000M@\000\000\000\000\000\000<@\000\000\000\000\000\000<@\000\000\000\000\000\0008@\000\000\000\000\000\000<@\000\000\000\000\000\000<@\000\000\000\000\000\000A@\000\000\000\000\000\000\000@\000\000\000\000\000\000@@\000\000\000\000\000\000:@\000\000\000\000\000\0000@\000\000\000\000\000\000D@\000\000\000\000\000\200A@\000\000\000\000\000\0006@\000\000\000\000\000\000<@\000\000\000\000\000\000?@\000\000\000\000\000\000;@\000\000\000\000\000\000E@\000\000\000\000\000\000>@\000\000\000\000\000\0000@\000\000\000\000\000\200I@\000\000\000\000\000\0006@\000\000\000\000\000\0003@\000\000\000\000\000\2004@\000\000\000\000\000\0002@\000\000\000\000\000\000<@\000\000\000\000\000\200A@\000\000\000\000\000\000=@\000\000\000\000\000\200M@\000\000\000\000\000\000<@\000\000\000\000\000\000F@\000\000\000\000\000\0003@\000\000\000\000\000\200@@\000\000\000\000\000\000<@\000\000\000\000\000\000<@\000\000\000\000\000\0006@\000\000\000\000\000\000>@\000\000\000\000\000\000F@\000\000\000\000\000\0008@\000\000\000\000\000\000<@\000\000\000\000\000\000=@\000\000\000\000\000\000>@\000\000\000\000\000\200D@\000\000\000\000\000\000<@\000\000\000\000\000\200A@\000\000\000\000\000\000I@\000\000\000\000\000\000<@\000\000\000\000\000\000\010@\000\000\000\000\000\000D@\000\000\000\000\000\000<@\000\000\000\000\000\000B@\000\000\000\000\000\0000@\000\000\000\000\000\0009@\000\000\000\000\000\000M@\000\000\000\000\000\200A@\000\000\000\000\000\000<@\000\000\000\000\000\0009@\000\000\000\000\000\200D@\000\000\000\000\000\200B@\000\000\000\000\000\000<@\000\000\000\000\000\200O@\000\000\000\000\000\200F@\000\000\000\000\000\000<@\000\000\000\000\000\000\034@\000\000\000\000\000\200A@\000\000\000\000\000\000<@\000\000\000\000\000\0000@\000\000\000\000\000\000<@\000\000\000\000\000\000:@\000\000\000\000\000\000B@\000\000\000\000\000\0008@\000\000\000\000\000\000<@\000\000\000\000\000\000I@\000\000\000\000\000\000<@\000\000\000\000\000\0003@\000\000\000\000\000\000<@\000\000\000\000\000\000<@\000\000\000\000\000\000<@\000\000\000\000\000\0001@\000\000\000\000\000\000>@\000\000\000\000\000\000>@\000\000\000\000\000\0008@\000\000\000\000\000\0002@\000\000\000\000\000\000:@\000\000\000\000\000\000<@\000\000\000\000\000\200E@\000\000\000\000\000\0008@\000\000\000\000\000\000?@\000\000\000\000\000\000D@\000\000\000\000\000\0006@\000\000\000\000\000\000;@\000\000\000\000\000\0006@\000\000\000\000\000\000<@\000\000\000\000\000\000B@\000\000\000\000\000\200N@\000\000\000\000\000\000?@\000\000\000\000\000\000<@\000\000\000\000\000\000C@\000\000\000\000\000\000<@\000\000\000\000\000\000<@\000\000\000\000\000\000=@\000\000\000\000\000\200F@\000\000\000\000\000\200F@\000\000\000\000\000\000<@\000\000\000\000\000\0009@\000\000\000\000\000\000B@\000\000\000\000\000\0008@\000\000\000\000\000\000D@\000\000\000\000\000\000<@\000\000\000\000\000\000.@\000\000\000\000\000\0009@\000\000\000\000\000\000<@\000\000\000\000\000\000<@\000\000\000\000\000\0006@\000\000\000\000\000\000C@\000\000\000\000\000\000<@\000\000\000\000\000\000<@\000\000\000\000\000\000D@\000\000\000\000\000\000=@\000\000\000\000\000\200F@\000\000\000\000\000\200A@\000\000\000\000\000\000<@\000\000\000\000\000\000N@\000\000\000\000\000\000<@\000\000\000\000\000\000<@\000\000\000\000\000\0008@\000\000\000\000\000\0002@\000\000\000\000\000\0003@\000\000\000\000\000\000<@\000\000\000\000\000\000;@\000\000\000\000\000\0003@\000\000\000\000\000\000E@\000\000\000\000\000\000@@\000\000\000\000\000\000<@\000\000\000\000\000\0002@\000\000\000\000\000\000\360?\000\000\000\000\000\000<@\000\000\000\000\000\0001@\000\000\000\000\000\000B@\000\000\000\000\000\0005@\000\000\000\000\000\0007@\000\000\000\000\000\0008@\000\000\000\000\000\0006@\000\000\000\000\000\000?@\000\000\000\000\000\000G@\000\000\000\000\000\0007@\000\000\000\000\000\200C@\000\000\000\000\000\000:@\000\000\000\000\000\000<@\000\000\000\000\000\000A@\000\000\000\000\000\000\010@\000\000\000\000\000\0005@\000\000\000\000\000\000<@\000\000\000\000\000\000<@\000\000\000\000\000\000<@\000\000\000\000\000\000<@\000\000\000\000\000\000F@\000\000\000\000\000\000<@\000\000\000\000\000\000A@\000\000\000\000\000\0002@\000\000\000\000\000\000>@\000\000\000\000\000\000<@\000\000\000\000\000\0005@\000\000\000\000\000\0002@\000\000\000\000\000\0003@\000\000\000\000\000\000<@\000\000\000\000\000\000@@\000\000\000\000\000\000<@\000\000\000\000\000\000<@\000\000\000\000\000\000E@\000\000\000\000\000\0001@\000\000\000\000\000\000I@\000\000\000\000\000\000,@\000\000\000\000\000\0008@\000\000\000\000\000\000P@\000\000\000\000\000\000?@\000\000\000\000\000\200F@\000\000\000\000\000\0004@\000\000\000\000\000\000<@\000\000\000\000\000\000<@\000\000\000\000\000\000A@\000\000\000\000\000\000\024@\000\000\000\000\000\000J@\000\000\000\000\000\000B@\000\000\000\000\000\000>@\000\000\000\000\000\200H@\000\000\000\000\000\000=@\000\000\000\000\000@P@\000\000\000\000\000\000<@\000\000\000\000\000\000H@\000\000\000\000\000\000A@\000\000\000\000\000\200G@\000\000\000\000\000\000<@\000\000\000\000\000\000C@\000\000\000\000\000\000L@\000\000\000\000\000\000<@\000\000\000\000\000\000\350?\000\000\000\000\000\000<@\000\000\000\000\000\200@@\000\000\000\000\000\0007@\000\000\000\000\000\000<@\000\000\000\000\000\000A@\000\000\000\000\000\000=@\000\000\000\000\000\000\000@\000\000\000\000\000\000\"@\000\000\000\000\000\000<@\000\000\000\000\000\200O@\000\000\000\000\000\0009@\000\000\000\000\000\000<@\000\000\000\000\000\200A@\000\000\000\000\000\000M@\000\000\000\000\000\000\"@\000\000\000\000\000\000<@\000\000\000\000\000\300Q@\000\000\000\000\000\0005@\000\000\000\000\000\0009@\000\000\000\000\000\0001@\000\000\000\000\000\0005@\000\000\000\000\000\200B@\000\000\000\000\000\0002@\000\000\000\000\000\200@@\000\000\000\000\000\000<@\000\000\000\000\000\000:@\000\000\000\000\000\000K@\000\000\000\000\000\0008@\000\000\000\000\000\200G@\000\000\000\000\000\000A@\000\000\000\000\000\000B@\000\000\000\000\000\000@@\000\000\000\000\000\000>@\000\000\000\000\000\0006@\000\000\000\000\000\000F@\000\000\000\000\000\000<@\000\000\000\000\000@D@\000\000\000\000\000\000I@\000\000\000\000\000\000<@\000\000\000\000\000\0007@\000\000\000\000\000\000\000@\000\000\000\000\000\0001@\000\000\000\000\000\000<@\000\000\000\000\000\000>@\000\000\000\000\000\000\034@\000\000\000\000\000\200F@\000\000\000\000\000\000>@\000\000\000\000\000\0006@\000\000\000\000\000\000B@\000\000\000\000\000\000\"@\000\000\000\000\000\000&@\000\000\000\000\000\000I@\000\000\000\000\000\0003@\000\000\000\000\000\000<@\000\000\000\000\000\200@@\000\000\000\000\000\0001@\000\000\000\000\000\000;@\000\000\000\000\000\000<@\000\000\000\000\000\0006@\000\000\000\000\000\000H@\000\000\000\000\000\000<@\000\000\000\000\000\200C@\000\000\000\000\000\000B@\000\000\000\000\000\000<@\000\000\000\000\000\000D@\000\000\000\000\000\000<@\000\000\000\000\000\0008@\000\000\000\000\000\0003@\000\000\000\000\000\000=@\000\000\000\000\000\000@@\000\000\000\000\000\000O@\000\000\000\000\000\200J@\000\000\000\000\000\000B@\000\000\000\000\000\0000@\000\000\000\000\000\000A@\000\000\000\000\000\0009@\000\000\000\000\000\000B@\000\000\000\000\000\200G@\000\000\000\000\000\000N@\000\000\000\000\000\000<@\000\000\000\000\000\200A@\000\000\000\000\000\000J@\000\000\000\000\000\200G@\000\000\000\000\000\000<@\000\000\000\000\000\200B@\000\000\000\000\000\000B@\000\000\000\000\000\000<@\000\000\000\000\000\200H@\000\000\000\000\000\000<@\000\000\000\000\000\200H@\000\000\000\000\000\200A@\000\000\000\000\000\000B@\000\000\000\000\000\000>@\000\000\000\000\000\000;@\000\000\000\000\000\0006@\000\000\000\000\000\000D@\000\000\000\000\000\200C@\000\000\000\000\000\000<@\000\000\000\000\000\000<@\000\000\000\000\000\200A@\000\000\000\000\000\0008@\000\000\000\000\000\000A@\000\000\000\000\000\000:@\000\000\000\000\000\0004@\000\000\000\000\000\200N@\000\000\000\000\000\200L@\000\000\000\000\000\0005@\000\000\000\000\000\000:@\000\000\000\000\000\000<@\000\000\000\000\000\000T@\000\000\000\000\000\200I@\000\000\000\000\000\000@@\000\000\000\000\000\000\"@\000\000\000\000\000\000<@\000\000\000\000\000\000@@\000\000\000\000\000\200D@\000\000\000\000\000\000<@\000\000\000\000\000\0004@\000\000\000\000\000\000<@\000\000\000\000\000\000\350?\000\000\000\000\000\000H@\000\000\000\000\000\000<@\000\000\000\000\000\0007@\000\000\000\000\000\000<@\000\000\000\000\000\0002@\000\000\000\000\000\0005@\000\000\000\000\000\0008@\000\000\000\000\000\000<@\000\000\000\000\000\000@@\000\000\000\000\000\000I@\000\000\000\000\000\200G@\000\000\000\000\000\000B@\000\000\000\000\000\0004@\000\000\000\000\000\0009@\000\000\000\000\000\000<@\000\000\000\000\000\200E@\000\000\000\000\000\000D@\000\000\000\000\000\000?@\000\000\000\000\000\000?@\000\000\000\000\000\000<@\000\000\000\000\000\0002@\000\000\000\000\000\0002@\000\000\000\000\000\000B@\000\000\000\000\000\000;@\000\000\000\000\000\0004@\000\000\000\000\000\000,@\000\000\000\000\000\000N@\000\000\000\000\000\0003@\000\000\000\000\000\0002@\000\000\000\000\000\000.@\000\000\000\000\000\000?@\000\000\000\000\000\000\020@\000\000\000\000\000\000<@\000\000\000\000\000\000N@\000\000\000\000\000\000<@\000\000\000\000\000\200H@\000\000\000\000\000\200A@\000\000\000\000\000\0009@\000\000\000\000\000\200C@\000\000\000\000\000\0006@\000\000\000\000\000\000<@\000\000\000\000\000\0008@\000\000\000\000\000\000<@\000\000\000\000\000\000H@\000\000\000\000\000\000=@\000\000\000\000\000\0003@\000\000\000\000\000\000C@\000\000\000\000\000\000;@\000\000\000\000\000\000<@\000\000\000\000\000\200@@\000\000\000\000\000\000\030@\000\000\000\000\000\000I@\000\000\000\000\000\000;@\000\000\000\000\000\000>@\000\000\000\000\000\0009@\000\000\000\000\000\0009@\000\000\000\000\000\000=@\000\000\000\000\000\000&@\000\000\000\000\000\000<@\000\000\000\000\000\0007@\000\000\000\000\000\0007@\000\000\000\000\000\200A@\000\000\000\000\000\000<@\000\000\000\000\000\000<@\000\000\000\000\000\000B@\000\000\000\000\000\0005@\000\000\000\000\000\0008@\000\000\000\000\000\200Q@\000\000\000\000\000\000\020@\000\000\000\000\000\000\030@\000\000\000\000\000\200@@\000\000\000\000\000\0007@\000\000\000\000\000\000H@\000\000\000\000\000\000<@\000\000\000\000\000\000A@\000\000\000\000\000\000<@\000\000\000\000\000\200D@\000\000\000\000\000\0004@\000\000\000\000\000\200I@\000\000\000\000\000\000<@\000\000\000\000\000\000<@\000\000\000\000\000\000@@\000\000\000\000\000\000H@\000\000\000\000\000\200L@\000\000\000\000\000\0002@\000\000\000\000\000\000<@\000\000\000\000\000\000\024@\000\000\000\000\000\0001@\000\000\000\000\000\000=@\000\000\000\000\000\000<@\000\000\000\000\000\0009@\000\000\000\000\000\000\360?\000\000\000\000\000\000G@\000\000\000\000\000\000<@\000\000\000\000\000\0000@\000\000\000\000\000\000<@\000\000\000\000\000\000<@\000\000\000\000\000\0009@\000\000\000\000\000\200C@\000\000\000\000\000\200H@\000\000\000\000\000\000?@\000\000\000\000\000\000>@\000\000\000\000\000\000>@\000\000\000\000\000\000A@\000\000\000\000\000\000?@\000\000\000\000\000\000&@\000\000\000\000\000\000?@\000\000\000\000\000\200C@\000\000\000\000\000\200C@\000\000\000\000\000\200@@\000\000\000\000\000\000:@\000\000\000\000\000\200C@\000\000\000\000\000\200A@\000\000\000\000\000\200>@\000\000\000\000\000\000<@\000\000\000\000\000\0007@\000\000\000\000\000\000?@\000\000\000\000\000\000$@\000\000\000\000\000\000J@\000\000\000\000\000\000;@\000\000\000\000\000\000\000@\000\000\000\000\000\000<@\000\000\000\000\000\000<@\000\000\000\000\000\000<@\000\000\000\000\000\000.@\000\000\000\000\000\000<@\000\000\000\000\000\0007@\000\000\000\000\000\0002@\000\000\000\000\000\200C@\000\000\000\000\000\0005@\000\000\000\000\000\000<@\000\000\000\000\000\000<@\000\000\000\000\000\0000@\000\000\000\000\000\000>@\000\000\000\000\000@A@\000\000\000\000\000\000E@\000\000\000\000\000\000<@\000\000\000\000\000\200A@\000\000\000\000\000\000<@\000\000\000\000\000\000<@\000\000\000\000\000\000\020@\000\000\000\000\000\0000@\000\000\000\000\000\0002@\000\000\000\000\000\200F@\000\000\000\000\000\200I@\000\000\000\000\000\0008@\000\000\000\000\000\200D@\000\000\000\000\000\0008@\000\000\000\000\000\000E@\000\000\000\000\000\000;@\000\000\000\000\000\000?@\000\000\000\000\000\000\020@\000\000\000\000\000\000:@\000\000\000\000\000\200G@\000\000\000\000\000\200@@\000\000\000\000\000\200G@\000\000\000\000\000\000<@\000\000\000\000\000\000.@\000\000\000\000\000\0004@\000\000\000\000\000\0003@\000\000\000\000\000\000<@\000\000\000\000\000\0006@\000\000\000\000\000\000<@\000\000\000\000\000\0009@\000\000\000\000\000\0003@\000\000\000\000\000\000<@\000\000\000\000\000\000@@"
      }
    }
  }
}
node {
  name: "normalize_element/component_0"
  op: "Const"
  device: "/device:CPU:0"
  attr {
    key: "_output_shapes"
    value {
      list {
        shape {
          dim {
            size: 627
          }
        }
      }
    }
  }
  attr {
    key: "dtype"
    value {
      type: DT_DOUBLE
    }
  }
  attr {
    key: "value"
    value {
      tensor {
        dtype: DT_DOUBLE
        tensor_shape {
          dim {
            size: 627
          }
        }
        tensor_content: "\000\000\000\000\000\0006@\000\000\000\000\000\000C@\000\000\000\000\000\000:@\000\000\000\000\000\200A@\000\000\000\000\000\000<@\000\000\000\000\000\000\000@\000\000\000\000\000\000;@\000\000\000\000\000\000,@\000\000\000\000\000\000\020@\000\000\000\000\000\0004@\000\000\000\000\000\200C@\000\000\000\000\000\000,@\000\000\000\000\000\000\000@\000\000\000\000\000\000<@\000\000\000\000\000\000?@\000\000\000\000\000\000<@\000\000\000\000\000\200A@\000\000\000\000\000\000<@\000\000\000\000\000\000C@\000\000\000\000\000\000<@\000\000\000\000\000\0003@\000\000\000\000\000\000<@\000\000\000\000\000\000<@\000\000\000\000\000\000D@\000\000\000\000\000\000<@\000\000\000\000\000\000<@\000\000\000\000\000\200P@\000\000\000\000\000\000<@\000\000\000\000\000\000E@\000\000\000\000\000\000<@\000\000\000\000\000\000,@\000\000\000\000\000\000D@\000\000\000\000\000\000;@\000\000\000\000\000\000<@\000\000\000\000\000\000\010@\000\000\000\000\000\000<@\000\000\000\000\000\000<@\000\000\000\000\000\000<@\000\000\000\000\000\0002@\000\000\000\000\000\000\034@\000\000\000\000\000\200H@\000\000\000\000\000\000=@\000\000\000\000\000@P@\000\000\000\000\000\000<@\000\000\000\000\000\0005@\000\000\000\000\000\200<@\000\000\000\000\000\000&@\000\000\000\000\000\0006@\000\000\000\000\000\000C@\000\000\000\000\000\200F@\000\000\000\000\000\000\020@\000\000\000\000\000\000<@\000\000\000\000\000\0003@\000\000\000\000\000\0001@\000\000\000\000\000\000:@\000\000\000\000\000\000@@\000\000\000\000\000\0005@\000\000\000\000\000\000@@\000\000\000\000\000\0009@\000\000\000\000\000\000<@\000\000\000\000\000\000<@\217\302\365(\\\217\352?\000\000\000\000\000\000>@\000\000\000\000\000\0006@\000\000\000\000\000\000=@\000\000\000\000\000\000<@\000\000\000\000\000\000<@\000\000\000\000\000\0000@\000\000\000\000\000\000<@\000\000\000\000\000\0007@\000\000\000\000\000\0008@\000\000\000\000\000\000G@\000\000\000\000\000\200M@\000\000\000\000\000\000<@\000\000\000\000\000\300Q@\000\000\000\000\000\0007@\000\000\000\000\000\000A@\000\000\000\000\000\000A@\000\000\000\000\000\000<@\000\000\000\000\000\000<@\000\000\000\000\000\0005@\000\000\000\000\000\200@@\000\000\000\000\000\200B@\000\000\000\000\000\000<@\000\000\000\000\000\000<@\000\000\000\000\000\000<@\000\000\000\000\000\200G@\000\000\000\000\000\000-@\000\000\000\000\000\0006@\000\000\000\000\000\0001@\000\000\000\000\000\0005@\000\000\000\000\000\240Q@\000\000\000\000\000\000=@\000\000\000\000\000\0008@\000\000\000\000\000\000<@\000\000\000\000\000@@@\000\000\000\000\000@@@\000\000\000\000\000\000<@\000\000\000\000\000\0008@\000\000\000\000\000\200F@\000\000\000\000\000\0004@\000\000\000\000\000\200G@\000\000\000\000\000\0007@\000\000\000\000\000\0003@\000\000\000\000\000\200B@\000\000\000\000\000\0000@\000\000\000\000\000\0008@\000\000\000\000\000\000<@\000\000\000\000\000\0006@\000\000\000\000\000\0003@\000\000\000\000\000\0002@\000\000\000\000\000\000\"@\000\000\000\000\000\200I@\000\000\000\000\000\300K@\000\000\000\000\000@D@\000\000\000\000\000\000<@\000\000\000\000\000\200I@\000\000\000\000\000\0000@\000\000\000\000\000\000<@\000\000\000\000\000\000<@\000\000\000\000\000\000F@\000\000\000\000\000\000:@\000\000\000\000\000\0001@\000\000\000\000\000\000\360?\000\000\000\000\000\000<@\000\000\000\000\000\000<@\000\000\000\000\000\000\020@\000\000\000\000\000\0002@\000\000\000\000\000\000<@\000\000\000\000\000\000I@\000\000\000\000\000\000>@\000\000\000\000\000\000B@\000\000\000\000\000\000<@\000\000\000\000\000\000<@\000\000\000\000\000\000\"@\000\000\000\000\000\000\020@\000\000\000\000\000\000<@\000\000\000\000\000\200F@\000\000\000\000\000\000B@\000\000\000\000\000\000@@\000\000\000\000\000\0003@\000\000\000\000\000\000\010@\000\000\000\000\000\000F@\000\000\000\000\000\000M@\000\000\000\000\000\000<@\000\000\000\000\000\000<@\000\000\000\000\000\0008@\000\000\000\000\000\000<@\000\000\000\000\000\000<@\000\000\000\000\000\000A@\000\000\000\000\000\000\000@\000\000\000\000\000\000@@\000\000\000\000\000\000:@\000\000\000\000\000\0000@\000\000\000\000\000\000D@\000\000\000\000\000\200A@\000\000\000\000\000\0006@\000\000\000\000\000\000<@\000\000\000\000\000\000?@\000\000\000\000\000\000;@\000\000\000\000\000\000E@\000\000\000\000\000\000>@\000\000\000\000\000\0000@\000\000\000\000\000\200I@\000\000\000\000\000\0006@\000\000\000\000\000\0003@\000\000\000\000\000\2004@\000\000\000\000\000\0002@\000\000\000\000\000\000<@\000\000\000\000\000\200A@\000\000\000\000\000\000=@\000\000\000\000\000\200M@\000\000\000\000\000\000<@\000\000\000\000\000\000F@\000\000\000\000\000\0003@\000\000\000\000\000\200@@\000\000\000\000\000\000<@\000\000\000\000\000\000<@\000\000\000\000\000\0006@\000\000\000\000\000\000>@\000\000\000\000\000\000F@\000\000\000\000\000\0008@\000\000\000\000\000\000<@\000\000\000\000\000\000=@\000\000\000\000\000\000>@\000\000\000\000\000\200D@\000\000\000\000\000\000<@\000\000\000\000\000\200A@\000\000\000\000\000\000I@\000\000\000\000\000\000<@\000\000\000\000\000\000\010@\000\000\000\000\000\000D@\000\000\000\000\000\000<@\000\000\000\000\000\000B@\000\000\000\000\000\0000@\000\000\000\000\000\0009@\000\000\000\000\000\000M@\000\000\000\000\000\200A@\000\000\000\000\000\000<@\000\000\000\000\000\0009@\000\000\000\000\000\200D@\000\000\000\000\000\200B@\000\000\000\000\000\000<@\000\000\000\000\000\200O@\000\000\000\000\000\200F@\000\000\000\000\000\000<@\000\000\000\000\000\000\034@\000\000\000\000\000\200A@\000\000\000\000\000\000<@\000\000\000\000\000\0000@\000\000\000\000\000\000<@\000\000\000\000\000\000:@\000\000\000\000\000\000B@\000\000\000\000\000\0008@\000\000\000\000\000\000<@\000\000\000\000\000\000I@\000\000\000\000\000\000<@\000\000\000\000\000\0003@\000\000\000\000\000\000<@\000\000\000\000\000\000<@\000\000\000\000\000\000<@\000\000\000\000\000\0001@\000\000\000\000\000\000>@\000\000\000\000\000\000>@\000\000\000\000\000\0008@\000\000\000\000\000\0002@\000\000\000\000\000\000:@\000\000\000\000\000\000<@\000\000\000\000\000\200E@\000\000\000\000\000\0008@\000\000\000\000\000\000?@\000\000\000\000\000\000D@\000\000\000\000\000\0006@\000\000\000\000\000\000;@\000\000\000\000\000\0006@\000\000\000\000\000\000<@\000\000\000\000\000\000B@\000\000\000\000\000\200N@\000\000\000\000\000\000?@\000\000\000\000\000\000<@\000\000\000\000\000\000C@\000\000\000\000\000\000<@\000\000\000\000\000\000<@\000\000\000\000\000\000=@\000\000\000\000\000\200F@\000\000\000\000\000\200F@\000\000\000\000\000\000<@\000\000\000\000\000\0009@\000\000\000\000\000\000B@\000\000\000\000\000\0008@\000\000\000\000\000\000D@\000\000\000\000\000\000<@\000\000\000\000\000\000.@\000\000\000\000\000\0009@\000\000\000\000\000\000<@\000\000\000\000\000\000<@\000\000\000\000\000\0006@\000\000\000\000\000\000C@\000\000\000\000\000\000<@\000\000\000\000\000\000<@\000\000\000\000\000\000D@\000\000\000\000\000\000=@\000\000\000\000\000\200F@\000\000\000\000\000\200A@\000\000\000\000\000\000<@\000\000\000\000\000\000N@\000\000\000\000\000\000<@\000\000\000\000\000\000<@\000\000\000\000\000\0008@\000\000\000\000\000\0002@\000\000\000\000\000\0003@\000\000\000\000\000\000<@\000\000\000\000\000\000;@\000\000\000\000\000\0003@\000\000\000\000\000\000E@\000\000\000\000\000\000@@\000\000\000\000\000\000<@\000\000\000\000\000\0002@\000\000\000\000\000\000\360?\000\000\000\000\000\000<@\000\000\000\000\000\0001@\000\000\000\000\000\000B@\000\000\000\000\000\0005@\000\000\000\000\000\0007@\000\000\000\000\000\0008@\000\000\000\000\000\0006@\000\000\000\000\000\000?@\000\000\000\000\000\000G@\000\000\000\000\000\0007@\000\000\000\000\000\200C@\000\000\000\000\000\000:@\000\000\000\000\000\000<@\000\000\000\000\000\000A@\000\000\000\000\000\000\010@\000\000\000\000\000\0005@\000\000\000\000\000\000<@\000\000\000\000\000\000<@\000\000\000\000\000\000<@\000\000\000\000\000\000<@\000\000\000\000\000\000F@\000\000\000\000\000\000<@\000\000\000\000\000\000A@\000\000\000\000\000\0002@\000\000\000\000\000\000>@\000\000\000\000\000\000<@\000\000\000\000\000\0005@\000\000\000\000\000\0002@\000\000\000\000\000\0003@\000\000\000\000\000\000<@\000\000\000\000\000\000@@\000\000\000\000\000\000<@\000\000\000\000\000\000<@\000\000\000\000\000\000E@\000\000\000\000\000\0001@\000\000\000\000\000\000I@\000\000\000\000\000\000,@\000\000\000\000\000\0008@\000\000\000\000\000\000P@\000\000\000\000\000\000?@\000\000\000\000\000\200F@\000\000\000\000\000\0004@\000\000\000\000\000\000<@\000\000\000\000\000\000<@\000\000\000\000\000\000A@\000\000\000\000\000\000\024@\000\000\000\000\000\000J@\000\000\000\000\000\000B@\000\000\000\000\000\000>@\000\000\000\000\000\200H@\000\000\000\000\000\000=@\000\000\000\000\000@P@\000\000\000\000\000\000<@\000\000\000\000\000\000H@\000\000\000\000\000\000A@\000\000\000\000\000\200G@\000\000\000\000\000\000<@\000\000\000\000\000\000C@\000\000\000\000\000\000L@\000\000\000\000\000\000<@\000\000\000\000\000\000\350?\000\000\000\000\000\000<@\000\000\000\000\000\200@@\000\000\000\000\000\0007@\000\000\000\000\000\000<@\000\000\000\000\000\000A@\000\000\000\000\000\000=@\000\000\000\000\000\000\000@\000\000\000\000\000\000\"@\000\000\000\000\000\000<@\000\000\000\000\000\200O@\000\000\000\000\000\0009@\000\000\000\000\000\000<@\000\000\000\000\000\200A@\000\000\000\000\000\000M@\000\000\000\000\000\000\"@\000\000\000\000\000\000<@\000\000\000\000\000\300Q@\000\000\000\000\000\0005@\000\000\000\000\000\0009@\000\000\000\000\000\0001@\000\000\000\000\000\0005@\000\000\000\000\000\200B@\000\000\000\000\000\0002@\000\000\000\000\000\200@@\000\000\000\000\000\000<@\000\000\000\000\000\000:@\000\000\000\000\000\000K@\000\000\000\000\000\0008@\000\000\000\000\000\200G@\000\000\000\000\000\000A@\000\000\000\000\000\000B@\000\000\000\000\000\000@@\000\000\000\000\000\000>@\000\000\000\000\000\0006@\000\000\000\000\000\000F@\000\000\000\000\000\000<@\000\000\000\000\000@D@\000\000\000\000\000\000I@\000\000\000\000\000\000<@\000\000\000\000\000\0007@\000\000\000\000\000\000\000@\000\000\000\000\000\0001@\000\000\000\000\000\000<@\000\000\000\000\000\000>@\000\000\000\000\000\000\034@\000\000\000\000\000\200F@\000\000\000\000\000\000>@\000\000\000\000\000\0006@\000\000\000\000\000\000B@\000\000\000\000\000\000\"@\000\000\000\000\000\000&@\000\000\000\000\000\000I@\000\000\000\000\000\0003@\000\000\000\000\000\000<@\000\000\000\000\000\200@@\000\000\000\000\000\0001@\000\000\000\000\000\000;@\000\000\000\000\000\000<@\000\000\000\000\000\0006@\000\000\000\000\000\000H@\000\000\000\000\000\000<@\000\000\000\000\000\200C@\000\000\000\000\000\000B@\000\000\000\000\000\000<@\000\000\000\000\000\000D@\000\000\000\000\000\000<@\000\000\000\000\000\0008@\000\000\000\000\000\0003@\000\000\000\000\000\000=@\000\000\000\000\000\000@@\000\000\000\000\000\000O@\000\000\000\000\000\200J@\000\000\000\000\000\000B@\000\000\000\000\000\0000@\000\000\000\000\000\000A@\000\000\000\000\000\0009@\000\000\000\000\000\000B@\000\000\000\000\000\200G@\000\000\000\000\000\000N@\000\000\000\000\000\000<@\000\000\000\000\000\200A@\000\000\000\000\000\000J@\000\000\000\000\000\200G@\000\000\000\000\000\000<@\000\000\000\000\000\200B@\000\000\000\000\000\000B@\000\000\000\000\000\000<@\000\000\000\000\000\200H@\000\000\000\000\000\000<@\000\000\000\000\000\200H@\000\000\000\000\000\200A@\000\000\000\000\000\000B@\000\000\000\000\000\000>@\000\000\000\000\000\000;@\000\000\000\000\000\0006@\000\000\000\000\000\000D@\000\000\000\000\000\200C@\000\000\000\000\000\000<@\000\000\000\000\000\000<@\000\000\000\000\000\200A@\000\000\000\000\000\0008@\000\000\000\000\000\000A@\000\000\000\000\000\000:@\000\000\000\000\000\0004@\000\000\000\000\000\200N@\000\000\000\000\000\200L@\000\000\000\000\000\0005@\000\000\000\000\000\000:@\000\000\000\000\000\000<@\000\000\000\000\000\000T@\000\000\000\000\000\200I@\000\000\000\000\000\000@@\000\000\000\000\000\000\"@\000\000\000\000\000\000<@\000\000\000\000\000\000@@\000\000\000\000\000\200D@\000\000\000\000\000\000<@\000\000\000\000\000\0004@\000\000\000\000\000\000<@\000\000\000\000\000\000\350?\000\000\000\000\000\000H@\000\000\000\000\000\000<@\000\000\000\000\000\0007@\000\000\000\000\000\000<@\000\000\000\000\000\0002@\000\000\000\000\000\0005@\000\000\000\000\000\0008@\000\000\000\000\000\000<@\000\000\000\000\000\000@@\000\000\000\000\000\000I@\000\000\000\000\000\200G@\000\000\000\000\000\000B@\000\000\000\000\000\0004@\000\000\000\000\000\0009@\000\000\000\000\000\000<@\000\000\000\000\000\200E@\000\000\000\000\000\000D@\000\000\000\000\000\000?@\000\000\000\000\000\000?@\000\000\000\000\000\000<@\000\000\000\000\000\0002@\000\000\000\000\000\0002@\000\000\000\000\000\000B@\000\000\000\000\000\000;@\000\000\000\000\000\0004@\000\000\000\000\000\000,@\000\000\000\000\000\000N@\000\000\000\000\000\0003@\000\000\000\000\000\0002@\000\000\000\000\000\000.@\000\000\000\000\000\000?@\000\000\000\000\000\000\020@\000\000\000\000\000\000<@\000\000\000\000\000\000N@\000\000\000\000\000\000<@\000\000\000\000\000\200H@\000\000\000\000\000\200A@\000\000\000\000\000\0009@\000\000\000\000\000\200C@\000\000\000\000\000\0006@\000\000\000\000\000\000<@\000\000\000\000\000\0008@\000\000\000\000\000\000<@\000\000\000\000\000\000H@\000\000\000\000\000\000=@\000\000\000\000\000\0003@\000\000\000\000\000\000C@\000\000\000\000\000\000;@\000\000\000\000\000\000<@\000\000\000\000\000\200@@\000\000\000\000\000\000\030@\000\000\000\000\000\000I@\000\000\000\000\000\000;@\000\000\000\000\000\000>@\000\000\000\000\000\0009@\000\000\000\000\000\0009@\000\000\000\000\000\000=@\000\000\000\000\000\000&@\000\000\000\000\000\000<@\000\000\000\000\000\0007@\000\000\000\000\000\0007@\000\000\000\000\000\200A@\000\000\000\000\000\000<@\000\000\000\000\000\000<@\000\000\000\000\000\000B@\000\000\000\000\000\0005@\000\000\000\000\000\0008@\000\000\000\000\000\200Q@\000\000\000\000\000\000\020@\000\000\000\000\000\000\030@\000\000\000\000\000\200@@\000\000\000\000\000\0007@\000\000\000\000\000\000H@\000\000\000\000\000\000<@\000\000\000\000\000\000A@\000\000\000\000\000\000<@\000\000\000\000\000\200D@\000\000\000\000\000\0004@\000\000\000\000\000\200I@\000\000\000\000\000\000<@\000\000\000\000\000\000<@\000\000\000\000\000\000@@\000\000\000\000\000\000H@\000\000\000\000\000\200L@\000\000\000\000\000\0002@\000\000\000\000\000\000<@\000\000\000\000\000\000\024@\000\000\000\000\000\0001@\000\000\000\000\000\000=@\000\000\000\000\000\000<@\000\000\000\000\000\0009@\000\000\000\000\000\000\360?\000\000\000\000\000\000G@\000\000\000\000\000\000<@\000\000\000\000\000\0000@\000\000\000\000\000\000<@\000\000\000\000\000\000<@\000\000\000\000\000\0009@\000\000\000\000\000\200C@\000\000\000\000\000\200H@\000\000\000\000\000\000?@\000\000\000\000\000\000>@\000\000\000\000\000\000>@\000\000\000\000\000\000A@\000\000\000\000\000\000?@\000\000\000\000\000\000&@\000\000\000\000\000\000?@\000\000\000\000\000\200C@\000\000\000\000\000\200C@\000\000\000\000\000\200@@\000\000\000\000\000\000:@\000\000\000\000\000\200C@\000\000\000\000\000\200A@\000\000\000\000\000\200>@\000\000\000\000\000\000<@\000\000\000\000\000\0007@\000\000\000\000\000\000?@\000\000\000\000\000\000$@\000\000\000\000\000\000J@\000\000\000\000\000\000;@\000\000\000\000\000\000\000@\000\000\000\000\000\000<@\000\000\000\000\000\000<@\000\000\000\000\000\000<@\000\000\000\000\000\000.@\000\000\000\000\000\000<@\000\000\000\000\000\0007@\000\000\000\000\000\0002@\000\000\000\000\000\200C@\000\000\000\000\000\0005@\000\000\000\000\000\000<@\000\000\000\000\000\000<@\000\000\000\000\000\0000@\000\000\000\000\000\000>@\000\000\000\000\000@A@\000\000\000\000\000\000E@\000\000\000\000\000\000<@\000\000\000\000\000\200A@\000\000\000\000\000\000<@\000\000\000\000\000\000<@\000\000\000\000\000\000\020@\000\000\000\000\000\0000@\000\000\000\000\000\0002@\000\000\000\000\000\200F@\000\000\000\000\000\200I@\000\000\000\000\000\0008@\000\000\000\000\000\200D@\000\000\000\000\000\0008@\000\000\000\000\000\000E@\000\000\000\000\000\000;@\000\000\000\000\000\000?@\000\000\000\000\000\000\020@\000\000\000\000\000\000:@\000\000\000\000\000\200G@\000\000\000\000\000\200@@\000\000\000\000\000\200G@\000\000\000\000\000\000<@\000\000\000\000\000\000.@\000\000\000\000\000\0004@\000\000\000\000\000\0003@\000\000\000\000\000\000<@\000\000\000\000\000\0006@\000\000\000\000\000\000<@\000\000\000\000\000\0009@\000\000\000\000\000\0003@\000\000\000\000\000\000<@\000\000\000\000\000\000@@"
      }
    }
  }
}
node {
  name: "normalize_element/Const_1"
  op: "Const"
  device: "/device:CPU:0"
  attr {
    key: "_output_shapes"
    value {
      list {
        shape {
          dim {
            size: 627
          }
        }
      }
    }
  }
  attr {
    key: "dtype"
    value {
      type: DT_STRING
    }
  }
  attr {
    key: "value"
    value {
      tensor {
        dtype: DT_STRING
        tensor_shape {
          dim {
            size: 627
          }
        }
        string_val: "n"
        string_val: "n"
        string_val: "y"
        string_val: "n"
        string_val: "y"
        string_val: "n"
        string_val: "n"
        string_val: "n"
        string_val: "n"
        string_val: "y"
        string_val: "n"
        string_val: "y"
        string_val: "n"
        string_val: "y"
        string_val: "n"
        string_val: "y"
        string_val: "y"
        string_val: "y"
        string_val: "n"
        string_val: "y"
        string_val: "n"
        string_val: "y"
        string_val: "y"
        string_val: "y"
        string_val: "n"
        string_val: "y"
        string_val: "y"
        string_val: "n"
        string_val: "n"
        string_val: "y"
        string_val: "n"
        string_val: "n"
        string_val: "n"
        string_val: "y"
        string_val: "n"
        string_val: "y"
        string_val: "n"
        string_val: "n"
        string_val: "n"
        string_val: "n"
        string_val: "n"
        string_val: "n"
        string_val: "n"
        string_val: "y"
        string_val: "y"
        string_val: "y"
        string_val: "n"
        string_val: "y"
        string_val: "y"
        string_val: "n"
        string_val: "n"
        string_val: "n"
        string_val: "y"
        string_val: "n"
        string_val: "n"
        string_val: "y"
        string_val: "y"
        string_val: "y"
        string_val: "y"
        string_val: "y"
        string_val: "y"
        string_val: "n"
        string_val: "y"
        string_val: "y"
        string_val: "y"
        string_val: "y"
        string_val: "y"
        string_val: "n"
        string_val: "y"
        string_val: "n"
        string_val: "y"
        string_val: "n"
        string_val: "y"
        string_val: "y"
        string_val: "y"
        string_val: "n"
        string_val: "n"
        string_val: "n"
        string_val: "y"
        string_val: "y"
        string_val: "n"
        string_val: "y"
        string_val: "n"
        string_val: "y"
        string_val: "y"
        string_val: "n"
        string_val: "y"
        string_val: "n"
        string_val: "y"
        string_val: "y"
        string_val: "y"
        string_val: "y"
        string_val: "n"
        string_val: "n"
        string_val: "y"
        string_val: "n"
        string_val: "y"
        string_val: "y"
        string_val: "y"
        string_val: "y"
        string_val: "y"
        string_val: "n"
        string_val: "y"
        string_val: "n"
        string_val: "n"
        string_val: "y"
        string_val: "y"
        string_val: "n"
        string_val: "y"
        string_val: "y"
        string_val: "y"
        string_val: "n"
        string_val: "y"
        string_val: "y"
        string_val: "n"
        string_val: "y"
        string_val: "n"
        string_val: "y"
        string_val: "y"
        string_val: "n"
        string_val: "n"
        string_val: "y"
        string_val: "y"
        string_val: "n"
        string_val: "n"
        string_val: "y"
        string_val: "n"
        string_val: "n"
        string_val: "n"
        string_val: "y"
        string_val: "y"
        string_val: "y"
        string_val: "n"
        string_val: "y"
        string_val: "n"
        string_val: "n"
        string_val: "n"
        string_val: "y"
        string_val: "y"
        string_val: "y"
        string_val: "n"
        string_val: "n"
        string_val: "y"
        string_val: "y"
        string_val: "y"
        string_val: "y"
        string_val: "y"
        string_val: "y"
        string_val: "n"
        string_val: "y"
        string_val: "n"
        string_val: "n"
        string_val: "y"
        string_val: "y"
        string_val: "y"
        string_val: "y"
        string_val: "y"
        string_val: "n"
        string_val: "n"
        string_val: "y"
        string_val: "n"
        string_val: "y"
        string_val: "y"
        string_val: "y"
        string_val: "y"
        string_val: "y"
        string_val: "y"
        string_val: "y"
        string_val: "n"
        string_val: "n"
        string_val: "y"
        string_val: "y"
        string_val: "y"
        string_val: "n"
        string_val: "y"
        string_val: "y"
        string_val: "n"
        string_val: "n"
        string_val: "y"
        string_val: "y"
        string_val: "n"
        string_val: "n"
        string_val: "y"
        string_val: "n"
        string_val: "n"
        string_val: "n"
        string_val: "y"
        string_val: "y"
        string_val: "n"
        string_val: "y"
        string_val: "n"
        string_val: "y"
        string_val: "y"
        string_val: "y"
        string_val: "n"
        string_val: "n"
        string_val: "n"
        string_val: "y"
        string_val: "y"
        string_val: "y"
        string_val: "n"
        string_val: "n"
        string_val: "y"
        string_val: "n"
        string_val: "y"
        string_val: "y"
        string_val: "n"
        string_val: "n"
        string_val: "y"
        string_val: "y"
        string_val: "y"
        string_val: "y"
        string_val: "y"
        string_val: "y"
        string_val: "y"
        string_val: "n"
        string_val: "y"
        string_val: "y"
        string_val: "y"
        string_val: "y"
        string_val: "y"
        string_val: "n"
        string_val: "n"
        string_val: "y"
        string_val: "y"
        string_val: "n"
        string_val: "n"
        string_val: "y"
        string_val: "n"
        string_val: "n"
        string_val: "n"
        string_val: "n"
        string_val: "y"
        string_val: "y"
        string_val: "n"
        string_val: "n"
        string_val: "y"
        string_val: "y"
        string_val: "n"
        string_val: "n"
        string_val: "n"
        string_val: "n"
        string_val: "y"
        string_val: "n"
        string_val: "y"
        string_val: "y"
        string_val: "y"
        string_val: "y"
        string_val: "y"
        string_val: "y"
        string_val: "y"
        string_val: "n"
        string_val: "n"
        string_val: "n"
        string_val: "y"
        string_val: "y"
        string_val: "n"
        string_val: "y"
        string_val: "y"
        string_val: "y"
        string_val: "n"
        string_val: "n"
        string_val: "n"
        string_val: "y"
        string_val: "n"
        string_val: "n"
        string_val: "y"
        string_val: "y"
        string_val: "y"
        string_val: "n"
        string_val: "y"
        string_val: "n"
        string_val: "n"
        string_val: "y"
        string_val: "y"
        string_val: "y"
        string_val: "y"
        string_val: "y"
        string_val: "n"
        string_val: "y"
        string_val: "y"
        string_val: "n"
        string_val: "y"
        string_val: "n"
        string_val: "n"
        string_val: "y"
        string_val: "y"
        string_val: "y"
        string_val: "y"
        string_val: "y"
        string_val: "y"
        string_val: "n"
        string_val: "n"
        string_val: "n"
        string_val: "y"
        string_val: "n"
        string_val: "y"
        string_val: "y"
        string_val: "y"
        string_val: "y"
        string_val: "y"
        string_val: "n"
        string_val: "n"
        string_val: "y"
        string_val: "y"
        string_val: "y"
        string_val: "n"
        string_val: "y"
        string_val: "y"
        string_val: "y"
        string_val: "y"
        string_val: "n"
        string_val: "n"
        string_val: "y"
        string_val: "n"
        string_val: "n"
        string_val: "n"
        string_val: "n"
        string_val: "y"
        string_val: "n"
        string_val: "y"
        string_val: "y"
        string_val: "y"
        string_val: "y"
        string_val: "n"
        string_val: "y"
        string_val: "n"
        string_val: "y"
        string_val: "n"
        string_val: "y"
        string_val: "y"
        string_val: "n"
        string_val: "y"
        string_val: "y"
        string_val: "y"
        string_val: "y"
        string_val: "y"
        string_val: "y"
        string_val: "y"
        string_val: "n"
        string_val: "y"
        string_val: "n"
        string_val: "y"
        string_val: "y"
        string_val: "n"
        string_val: "n"
        string_val: "n"
        string_val: "n"
        string_val: "y"
        string_val: "y"
        string_val: "n"
        string_val: "n"
        string_val: "n"
        string_val: "y"
        string_val: "n"
        string_val: "n"
        string_val: "y"
        string_val: "y"
        string_val: "n"
        string_val: "y"
        string_val: "y"
        string_val: "y"
        string_val: "n"
        string_val: "n"
        string_val: "y"
        string_val: "y"
        string_val: "n"
        string_val: "y"
        string_val: "y"
        string_val: "y"
        string_val: "n"
        string_val: "y"
        string_val: "y"
        string_val: "y"
        string_val: "n"
        string_val: "y"
        string_val: "y"
        string_val: "y"
        string_val: "y"
        string_val: "n"
        string_val: "n"
        string_val: "n"
        string_val: "n"
        string_val: "y"
        string_val: "n"
        string_val: "y"
        string_val: "y"
        string_val: "n"
        string_val: "n"
        string_val: "n"
        string_val: "n"
        string_val: "n"
        string_val: "n"
        string_val: "y"
        string_val: "n"
        string_val: "n"
        string_val: "y"
        string_val: "y"
        string_val: "y"
        string_val: "n"
        string_val: "y"
        string_val: "n"
        string_val: "n"
        string_val: "y"
        string_val: "y"
        string_val: "y"
        string_val: "n"
        string_val: "y"
        string_val: "n"
        string_val: "y"
        string_val: "y"
        string_val: "n"
        string_val: "y"
        string_val: "y"
        string_val: "y"
        string_val: "n"
        string_val: "y"
        string_val: "y"
        string_val: "n"
        string_val: "y"
        string_val: "y"
        string_val: "n"
        string_val: "y"
        string_val: "n"
        string_val: "n"
        string_val: "n"
        string_val: "y"
        string_val: "y"
        string_val: "y"
        string_val: "n"
        string_val: "y"
        string_val: "n"
        string_val: "y"
        string_val: "y"
        string_val: "n"
        string_val: "y"
        string_val: "n"
        string_val: "y"
        string_val: "n"
        string_val: "y"
        string_val: "n"
        string_val: "n"
        string_val: "y"
        string_val: "n"
        string_val: "y"
        string_val: "y"
        string_val: "y"
        string_val: "y"
        string_val: "y"
        string_val: "y"
        string_val: "y"
        string_val: "y"
        string_val: "n"
        string_val: "y"
        string_val: "y"
        string_val: "n"
        string_val: "n"
        string_val: "y"
        string_val: "y"
        string_val: "n"
        string_val: "n"
        string_val: "y"
        string_val: "y"
        string_val: "y"
        string_val: "n"
        string_val: "y"
        string_val: "n"
        string_val: "y"
        string_val: "n"
        string_val: "n"
        string_val: "y"
        string_val: "y"
        string_val: "n"
        string_val: "y"
        string_val: "y"
        string_val: "y"
        string_val: "n"
        string_val: "n"
        string_val: "y"
        string_val: "y"
        string_val: "y"
        string_val: "y"
        string_val: "n"
        string_val: "y"
        string_val: "y"
        string_val: "n"
        string_val: "n"
        string_val: "y"
        string_val: "y"
        string_val: "n"
        string_val: "n"
        string_val: "n"
        string_val: "y"
        string_val: "y"
        string_val: "y"
        string_val: "n"
        string_val: "y"
        string_val: "y"
        string_val: "y"
        string_val: "y"
        string_val: "n"
        string_val: "y"
        string_val: "y"
        string_val: "n"
        string_val: "y"
        string_val: "y"
        string_val: "y"
        string_val: "y"
        string_val: "y"
        string_val: "y"
        string_val: "n"
        string_val: "y"
        string_val: "n"
        string_val: "n"
        string_val: "n"
        string_val: "n"
        string_val: "y"
        string_val: "y"
        string_val: "y"
        string_val: "y"
        string_val: "y"
        string_val: "y"
        string_val: "y"
        string_val: "y"
        string_val: "n"
        string_val: "n"
        string_val: "n"
        string_val: "n"
        string_val: "n"
        string_val: "n"
        string_val: "y"
        string_val: "y"
        string_val: "n"
        string_val: "y"
        string_val: "y"
        string_val: "y"
        string_val: "y"
        string_val: "y"
        string_val: "n"
        string_val: "y"
        string_val: "n"
        string_val: "y"
        string_val: "y"
        string_val: "y"
        string_val: "y"
        string_val: "y"
        string_val: "y"
        string_val: "n"
        string_val: "y"
        string_val: "n"
        string_val: "y"
        string_val: "n"
        string_val: "y"
        string_val: "y"
        string_val: "y"
        string_val: "n"
        string_val: "y"
        string_val: "y"
        string_val: "y"
        string_val: "y"
        string_val: "y"
        string_val: "y"
        string_val: "n"
        string_val: "y"
        string_val: "n"
        string_val: "n"
        string_val: "y"
        string_val: "y"
        string_val: "y"
        string_val: "n"
        string_val: "y"
        string_val: "y"
        string_val: "y"
        string_val: "y"
        string_val: "y"
        string_val: "y"
        string_val: "n"
        string_val: "n"
        string_val: "n"
        string_val: "y"
        string_val: "n"
        string_val: "y"
        string_val: "y"
        string_val: "y"
        string_val: "n"
        string_val: "y"
        string_val: "y"
        string_val: "y"
        string_val: "n"
        string_val: "y"
        string_val: "y"
        string_val: "y"
        string_val: "y"
        string_val: "y"
        string_val: "y"
        string_val: "y"
        string_val: "n"
        string_val: "y"
        string_val: "n"
        string_val: "n"
        string_val: "n"
        string_val: "n"
        string_val: "n"
        string_val: "n"
        string_val: "y"
        string_val: "n"
        string_val: "n"
        string_val: "y"
        string_val: "y"
        string_val: "n"
        string_val: "y"
        string_val: "n"
        string_val: "y"
        string_val: "n"
        string_val: "y"
        string_val: "y"
        string_val: "n"
        string_val: "y"
        string_val: "y"
        string_val: "y"
        string_val: "y"
        string_val: "y"
        string_val: "y"
        string_val: "y"
        string_val: "y"
        string_val: "n"
        string_val: "y"
      }
    }
  }
}
node {
  name: "normalize_element/component_1"
  op: "Const"
  device: "/device:CPU:0"
  attr {
    key: "_output_shapes"
    value {
      list {
        shape {
          dim {
            size: 627
          }
        }
      }
    }
  }
  attr {
    key: "dtype"
    value {
      type: DT_STRING
    }
  }
  attr {
    key: "value"
    value {
      tensor {
        dtype: DT_STRING
        tensor_shape {
          dim {
            size: 627
          }
        }
        string_val: "n"
        string_val: "n"
        string_val: "y"
        string_val: "n"
        string_val: "y"
        string_val: "n"
        string_val: "n"
        string_val: "n"
        string_val: "n"
        string_val: "y"
        string_val: "n"
        string_val: "y"
        string_val: "n"
        string_val: "y"
        string_val: "n"
        string_val: "y"
        string_val: "y"
        string_val: "y"
        string_val: "n"
        string_val: "y"
        string_val: "n"
        string_val: "y"
        string_val: "y"
        string_val: "y"
        string_val: "n"
        string_val: "y"
        string_val: "y"
        string_val: "n"
        string_val: "n"
        string_val: "y"
        string_val: "n"
        string_val: "n"
        string_val: "n"
        string_val: "y"
        string_val: "n"
        string_val: "y"
        string_val: "n"
        string_val: "n"
        string_val: "n"
        string_val: "n"
        string_val: "n"
        string_val: "n"
        string_val: "n"
        string_val: "y"
        string_val: "y"
        string_val: "y"
        string_val: "n"
        string_val: "y"
        string_val: "y"
        string_val: "n"
        string_val: "n"
        string_val: "n"
        string_val: "y"
        string_val: "n"
        string_val: "n"
        string_val: "y"
        string_val: "y"
        string_val: "y"
        string_val: "y"
        string_val: "y"
        string_val: "y"
        string_val: "n"
        string_val: "y"
        string_val: "y"
        string_val: "y"
        string_val: "y"
        string_val: "y"
        string_val: "n"
        string_val: "y"
        string_val: "n"
        string_val: "y"
        string_val: "n"
        string_val: "y"
        string_val: "y"
        string_val: "y"
        string_val: "n"
        string_val: "n"
        string_val: "n"
        string_val: "y"
        string_val: "y"
        string_val: "n"
        string_val: "y"
        string_val: "n"
        string_val: "y"
        string_val: "y"
        string_val: "n"
        string_val: "y"
        string_val: "n"
        string_val: "y"
        string_val: "y"
        string_val: "y"
        string_val: "y"
        string_val: "n"
        string_val: "n"
        string_val: "y"
        string_val: "n"
        string_val: "y"
        string_val: "y"
        string_val: "y"
        string_val: "y"
        string_val: "y"
        string_val: "n"
        string_val: "y"
        string_val: "n"
        string_val: "n"
        string_val: "y"
        string_val: "y"
        string_val: "n"
        string_val: "y"
        string_val: "y"
        string_val: "y"
        string_val: "n"
        string_val: "y"
        string_val: "y"
        string_val: "n"
        string_val: "y"
        string_val: "n"
        string_val: "y"
        string_val: "y"
        string_val: "n"
        string_val: "n"
        string_val: "y"
        string_val: "y"
        string_val: "n"
        string_val: "n"
        string_val: "y"
        string_val: "n"
        string_val: "n"
        string_val: "n"
        string_val: "y"
        string_val: "y"
        string_val: "y"
        string_val: "n"
        string_val: "y"
        string_val: "n"
        string_val: "n"
        string_val: "n"
        string_val: "y"
        string_val: "y"
        string_val: "y"
        string_val: "n"
        string_val: "n"
        string_val: "y"
        string_val: "y"
        string_val: "y"
        string_val: "y"
        string_val: "y"
        string_val: "y"
        string_val: "n"
        string_val: "y"
        string_val: "n"
        string_val: "n"
        string_val: "y"
        string_val: "y"
        string_val: "y"
        string_val: "y"
        string_val: "y"
        string_val: "n"
        string_val: "n"
        string_val: "y"
        string_val: "n"
        string_val: "y"
        string_val: "y"
        string_val: "y"
        string_val: "y"
        string_val: "y"
        string_val: "y"
        string_val: "y"
        string_val: "n"
        string_val: "n"
        string_val: "y"
        string_val: "y"
        string_val: "y"
        string_val: "n"
        string_val: "y"
        string_val: "y"
        string_val: "n"
        string_val: "n"
        string_val: "y"
        string_val: "y"
        string_val: "n"
        string_val: "n"
        string_val: "y"
        string_val: "n"
        string_val: "n"
        string_val: "n"
        string_val: "y"
        string_val: "y"
        string_val: "n"
        string_val: "y"
        string_val: "n"
        string_val: "y"
        string_val: "y"
        string_val: "y"
        string_val: "n"
        string_val: "n"
        string_val: "n"
        string_val: "y"
        string_val: "y"
        string_val: "y"
        string_val: "n"
        string_val: "n"
        string_val: "y"
        string_val: "n"
        string_val: "y"
        string_val: "y"
        string_val: "n"
        string_val: "n"
        string_val: "y"
        string_val: "y"
        string_val: "y"
        string_val: "y"
        string_val: "y"
        string_val: "y"
        string_val: "y"
        string_val: "n"
        string_val: "y"
        string_val: "y"
        string_val: "y"
        string_val: "y"
        string_val: "y"
        string_val: "n"
        string_val: "n"
        string_val: "y"
        string_val: "y"
        string_val: "n"
        string_val: "n"
        string_val: "y"
        string_val: "n"
        string_val: "n"
        string_val: "n"
        string_val: "n"
        string_val: "y"
        string_val: "y"
        string_val: "n"
        string_val: "n"
        string_val: "y"
        string_val: "y"
        string_val: "n"
        string_val: "n"
        string_val: "n"
        string_val: "n"
        string_val: "y"
        string_val: "n"
        string_val: "y"
        string_val: "y"
        string_val: "y"
        string_val: "y"
        string_val: "y"
        string_val: "y"
        string_val: "y"
        string_val: "n"
        string_val: "n"
        string_val: "n"
        string_val: "y"
        string_val: "y"
        string_val: "n"
        string_val: "y"
        string_val: "y"
        string_val: "y"
        string_val: "n"
        string_val: "n"
        string_val: "n"
        string_val: "y"
        string_val: "n"
        string_val: "n"
        string_val: "y"
        string_val: "y"
        string_val: "y"
        string_val: "n"
        string_val: "y"
        string_val: "n"
        string_val: "n"
        string_val: "y"
        string_val: "y"
        string_val: "y"
        string_val: "y"
        string_val: "y"
        string_val: "n"
        string_val: "y"
        string_val: "y"
        string_val: "n"
        string_val: "y"
        string_val: "n"
        string_val: "n"
        string_val: "y"
        string_val: "y"
        string_val: "y"
        string_val: "y"
        string_val: "y"
        string_val: "y"
        string_val: "n"
        string_val: "n"
        string_val: "n"
        string_val: "y"
        string_val: "n"
        string_val: "y"
        string_val: "y"
        string_val: "y"
        string_val: "y"
        string_val: "y"
        string_val: "n"
        string_val: "n"
        string_val: "y"
        string_val: "y"
        string_val: "y"
        string_val: "n"
        string_val: "y"
        string_val: "y"
        string_val: "y"
        string_val: "y"
        string_val: "n"
        string_val: "n"
        string_val: "y"
        string_val: "n"
        string_val: "n"
        string_val: "n"
        string_val: "n"
        string_val: "y"
        string_val: "n"
        string_val: "y"
        string_val: "y"
        string_val: "y"
        string_val: "y"
        string_val: "n"
        string_val: "y"
        string_val: "n"
        string_val: "y"
        string_val: "n"
        string_val: "y"
        string_val: "y"
        string_val: "n"
        string_val: "y"
        string_val: "y"
        string_val: "y"
        string_val: "y"
        string_val: "y"
        string_val: "y"
        string_val: "y"
        string_val: "n"
        string_val: "y"
        string_val: "n"
        string_val: "y"
        string_val: "y"
        string_val: "n"
        string_val: "n"
        string_val: "n"
        string_val: "n"
        string_val: "y"
        string_val: "y"
        string_val: "n"
        string_val: "n"
        string_val: "n"
        string_val: "y"
        string_val: "n"
        string_val: "n"
        string_val: "y"
        string_val: "y"
        string_val: "n"
        string_val: "y"
        string_val: "y"
        string_val: "y"
        string_val: "n"
        string_val: "n"
        string_val: "y"
        string_val: "y"
        string_val: "n"
        string_val: "y"
        string_val: "y"
        string_val: "y"
        string_val: "n"
        string_val: "y"
        string_val: "y"
        string_val: "y"
        string_val: "n"
        string_val: "y"
        string_val: "y"
        string_val: "y"
        string_val: "y"
        string_val: "n"
        string_val: "n"
        string_val: "n"
        string_val: "n"
        string_val: "y"
        string_val: "n"
        string_val: "y"
        string_val: "y"
        string_val: "n"
        string_val: "n"
        string_val: "n"
        string_val: "n"
        string_val: "n"
        string_val: "n"
        string_val: "y"
        string_val: "n"
        string_val: "n"
        string_val: "y"
        string_val: "y"
        string_val: "y"
        string_val: "n"
        string_val: "y"
        string_val: "n"
        string_val: "n"
        string_val: "y"
        string_val: "y"
        string_val: "y"
        string_val: "n"
        string_val: "y"
        string_val: "n"
        string_val: "y"
        string_val: "y"
        string_val: "n"
        string_val: "y"
        string_val: "y"
        string_val: "y"
        string_val: "n"
        string_val: "y"
        string_val: "y"
        string_val: "n"
        string_val: "y"
        string_val: "y"
        string_val: "n"
        string_val: "y"
        string_val: "n"
        string_val: "n"
        string_val: "n"
        string_val: "y"
        string_val: "y"
        string_val: "y"
        string_val: "n"
        string_val: "y"
        string_val: "n"
        string_val: "y"
        string_val: "y"
        string_val: "n"
        string_val: "y"
        string_val: "n"
        string_val: "y"
        string_val: "n"
        string_val: "y"
        string_val: "n"
        string_val: "n"
        string_val: "y"
        string_val: "n"
        string_val: "y"
        string_val: "y"
        string_val: "y"
        string_val: "y"
        string_val: "y"
        string_val: "y"
        string_val: "y"
        string_val: "y"
        string_val: "n"
        string_val: "y"
        string_val: "y"
        string_val: "n"
        string_val: "n"
        string_val: "y"
        string_val: "y"
        string_val: "n"
        string_val: "n"
        string_val: "y"
        string_val: "y"
        string_val: "y"
        string_val: "n"
        string_val: "y"
        string_val: "n"
        string_val: "y"
        string_val: "n"
        string_val: "n"
        string_val: "y"
        string_val: "y"
        string_val: "n"
        string_val: "y"
        string_val: "y"
        string_val: "y"
        string_val: "n"
        string_val: "n"
        string_val: "y"
        string_val: "y"
        string_val: "y"
        string_val: "y"
        string_val: "n"
        string_val: "y"
        string_val: "y"
        string_val: "n"
        string_val: "n"
        string_val: "y"
        string_val: "y"
        string_val: "n"
        string_val: "n"
        string_val: "n"
        string_val: "y"
        string_val: "y"
        string_val: "y"
        string_val: "n"
        string_val: "y"
        string_val: "y"
        string_val: "y"
        string_val: "y"
        string_val: "n"
        string_val: "y"
        string_val: "y"
        string_val: "n"
        string_val: "y"
        string_val: "y"
        string_val: "y"
        string_val: "y"
        string_val: "y"
        string_val: "y"
        string_val: "n"
        string_val: "y"
        string_val: "n"
        string_val: "n"
        string_val: "n"
        string_val: "n"
        string_val: "y"
        string_val: "y"
        string_val: "y"
        string_val: "y"
        string_val: "y"
        string_val: "y"
        string_val: "y"
        string_val: "y"
        string_val: "n"
        string_val: "n"
        string_val: "n"
        string_val: "n"
        string_val: "n"
        string_val: "n"
        string_val: "y"
        string_val: "y"
        string_val: "n"
        string_val: "y"
        string_val: "y"
        string_val: "y"
        string_val: "y"
        string_val: "y"
        string_val: "n"
        string_val: "y"
        string_val: "n"
        string_val: "y"
        string_val: "y"
        string_val: "y"
        string_val: "y"
        string_val: "y"
        string_val: "y"
        string_val: "n"
        string_val: "y"
        string_val: "n"
        string_val: "y"
        string_val: "n"
        string_val: "y"
        string_val: "y"
        string_val: "y"
        string_val: "n"
        string_val: "y"
        string_val: "y"
        string_val: "y"
        string_val: "y"
        string_val: "y"
        string_val: "y"
        string_val: "n"
        string_val: "y"
        string_val: "n"
        string_val: "n"
        string_val: "y"
        string_val: "y"
        string_val: "y"
        string_val: "n"
        string_val: "y"
        string_val: "y"
        string_val: "y"
        string_val: "y"
        string_val: "y"
        string_val: "y"
        string_val: "n"
        string_val: "n"
        string_val: "n"
        string_val: "y"
        string_val: "n"
        string_val: "y"
        string_val: "y"
        string_val: "y"
        string_val: "n"
        string_val: "y"
        string_val: "y"
        string_val: "y"
        string_val: "n"
        string_val: "y"
        string_val: "y"
        string_val: "y"
        string_val: "y"
        string_val: "y"
        string_val: "y"
        string_val: "y"
        string_val: "n"
        string_val: "y"
        string_val: "n"
        string_val: "n"
        string_val: "n"
        string_val: "n"
        string_val: "n"
        string_val: "n"
        string_val: "y"
        string_val: "n"
        string_val: "n"
        string_val: "y"
        string_val: "y"
        string_val: "n"
        string_val: "y"
        string_val: "n"
        string_val: "y"
        string_val: "n"
        string_val: "y"
        string_val: "y"
        string_val: "n"
        string_val: "y"
        string_val: "y"
        string_val: "y"
        string_val: "y"
        string_val: "y"
        string_val: "y"
        string_val: "y"
        string_val: "y"
        string_val: "n"
        string_val: "y"
      }
    }
  }
}
node {
  name: "normalize_element/Const_2"
  op: "Const"
  device: "/device:CPU:0"
  attr {
    key: "_output_shapes"
    value {
      list {
        shape {
          dim {
            size: 627
          }
        }
      }
    }
  }
  attr {
    key: "dtype"
    value {
      type: DT_STRING
    }
  }
  attr {
    key: "value"
    value {
      tensor {
        dtype: DT_STRING
        tensor_shape {
          dim {
            size: 627
          }
        }
        string_val: "Third"
        string_val: "First"
        string_val: "Third"
        string_val: "First"
        string_val: "Third"
        string_val: "Third"
        string_val: "Third"
        string_val: "Second"
        string_val: "Third"
        string_val: "Third"
        string_val: "Third"
        string_val: "Third"
        string_val: "Third"
        string_val: "Second"
        string_val: "Third"
        string_val: "Third"
        string_val: "Second"
        string_val: "First"
        string_val: "Third"
        string_val: "Third"
        string_val: "First"
        string_val: "Third"
        string_val: "Third"
        string_val: "First"
        string_val: "First"
        string_val: "Third"
        string_val: "Second"
        string_val: "First"
        string_val: "First"
        string_val: "Third"
        string_val: "Third"
        string_val: "Third"
        string_val: "Second"
        string_val: "Third"
        string_val: "Second"
        string_val: "Third"
        string_val: "Third"
        string_val: "Third"
        string_val: "Third"
        string_val: "Third"
        string_val: "First"
        string_val: "Second"
        string_val: "First"
        string_val: "First"
        string_val: "Second"
        string_val: "Third"
        string_val: "Third"
        string_val: "Third"
        string_val: "First"
        string_val: "First"
        string_val: "Third"
        string_val: "Third"
        string_val: "Third"
        string_val: "Third"
        string_val: "Third"
        string_val: "Second"
        string_val: "Second"
        string_val: "Third"
        string_val: "Third"
        string_val: "Third"
        string_val: "Third"
        string_val: "Second"
        string_val: "Third"
        string_val: "Third"
        string_val: "Third"
        string_val: "Third"
        string_val: "First"
        string_val: "Third"
        string_val: "Third"
        string_val: "First"
        string_val: "Third"
        string_val: "First"
        string_val: "Third"
        string_val: "Third"
        string_val: "First"
        string_val: "First"
        string_val: "Second"
        string_val: "Second"
        string_val: "Third"
        string_val: "Third"
        string_val: "First"
        string_val: "Third"
        string_val: "Third"
        string_val: "Third"
        string_val: "Third"
        string_val: "Third"
        string_val: "First"
        string_val: "Third"
        string_val: "Third"
        string_val: "Third"
        string_val: "Third"
        string_val: "Third"
        string_val: "Second"
        string_val: "First"
        string_val: "Third"
        string_val: "Second"
        string_val: "Second"
        string_val: "Third"
        string_val: "Third"
        string_val: "Third"
        string_val: "Third"
        string_val: "Third"
        string_val: "Second"
        string_val: "First"
        string_val: "First"
        string_val: "Third"
        string_val: "First"
        string_val: "Third"
        string_val: "Third"
        string_val: "Third"
        string_val: "Second"
        string_val: "Third"
        string_val: "Second"
        string_val: "Third"
        string_val: "Third"
        string_val: "Third"
        string_val: "First"
        string_val: "Third"
        string_val: "Third"
        string_val: "Third"
        string_val: "Third"
        string_val: "Third"
        string_val: "Third"
        string_val: "Third"
        string_val: "First"
        string_val: "Third"
        string_val: "Third"
        string_val: "Third"
        string_val: "Third"
        string_val: "First"
        string_val: "Second"
        string_val: "Third"
        string_val: "Third"
        string_val: "Second"
        string_val: "Third"
        string_val: "Third"
        string_val: "Third"
        string_val: "First"
        string_val: "Third"
        string_val: "Second"
        string_val: "Third"
        string_val: "Second"
        string_val: "First"
        string_val: "First"
        string_val: "Third"
        string_val: "Third"
        string_val: "Second"
        string_val: "Third"
        string_val: "Third"
        string_val: "Third"
        string_val: "Third"
        string_val: "Third"
        string_val: "Third"
        string_val: "Third"
        string_val: "First"
        string_val: "Second"
        string_val: "Third"
        string_val: "Third"
        string_val: "First"
        string_val: "Third"
        string_val: "Second"
        string_val: "Second"
        string_val: "Third"
        string_val: "Third"
        string_val: "Third"
        string_val: "Second"
        string_val: "Third"
        string_val: "Second"
        string_val: "Third"
        string_val: "First"
        string_val: "Third"
        string_val: "Second"
        string_val: "Third"
        string_val: "Second"
        string_val: "Second"
        string_val: "Second"
        string_val: "Third"
        string_val: "Third"
        string_val: "Third"
        string_val: "Third"
        string_val: "First"
        string_val: "Second"
        string_val: "Third"
        string_val: "Third"
        string_val: "Third"
        string_val: "Third"
        string_val: "First"
        string_val: "First"
        string_val: "Second"
        string_val: "Third"
        string_val: "Third"
        string_val: "First"
        string_val: "Third"
        string_val: "Second"
        string_val: "Third"
        string_val: "Third"
        string_val: "First"
        string_val: "First"
        string_val: "First"
        string_val: "Third"
        string_val: "Second"
        string_val: "First"
        string_val: "Third"
        string_val: "First"
        string_val: "Third"
        string_val: "Second"
        string_val: "Third"
        string_val: "Third"
        string_val: "Third"
        string_val: "Third"
        string_val: "First"
        string_val: "First"
        string_val: "Second"
        string_val: "Third"
        string_val: "First"
        string_val: "First"
        string_val: "Third"
        string_val: "Third"
        string_val: "Second"
        string_val: "Third"
        string_val: "First"
        string_val: "First"
        string_val: "Second"
        string_val: "First"
        string_val: "First"
        string_val: "First"
        string_val: "Second"
        string_val: "Third"
        string_val: "Second"
        string_val: "Second"
        string_val: "First"
        string_val: "First"
        string_val: "Third"
        string_val: "Third"
        string_val: "Second"
        string_val: "Third"
        string_val: "First"
        string_val: "Third"
        string_val: "Third"
        string_val: "Third"
        string_val: "First"
        string_val: "First"
        string_val: "Third"
        string_val: "First"
        string_val: "Third"
        string_val: "First"
        string_val: "Second"
        string_val: "Second"
        string_val: "Second"
        string_val: "Second"
        string_val: "Second"
        string_val: "Third"
        string_val: "Third"
        string_val: "Third"
        string_val: "Third"
        string_val: "Third"
        string_val: "First"
        string_val: "Second"
        string_val: "Third"
        string_val: "Third"
        string_val: "Third"
        string_val: "Second"
        string_val: "Third"
        string_val: "Third"
        string_val: "Third"
        string_val: "First"
        string_val: "Third"
        string_val: "Third"
        string_val: "First"
        string_val: "Third"
        string_val: "Third"
        string_val: "First"
        string_val: "First"
        string_val: "Third"
        string_val: "First"
        string_val: "Third"
        string_val: "Third"
        string_val: "Second"
        string_val: "Third"
        string_val: "Third"
        string_val: "Second"
        string_val: "First"
        string_val: "Third"
        string_val: "First"
        string_val: "Third"
        string_val: "Third"
        string_val: "Third"
        string_val: "Second"
        string_val: "Second"
        string_val: "Third"
        string_val: "Third"
        string_val: "Third"
        string_val: "Second"
        string_val: "Second"
        string_val: "Third"
        string_val: "Third"
        string_val: "Third"
        string_val: "Third"
        string_val: "Second"
        string_val: "Third"
        string_val: "Third"
        string_val: "Second"
        string_val: "Second"
        string_val: "Second"
        string_val: "Third"
        string_val: "Third"
        string_val: "Third"
        string_val: "Second"
        string_val: "Third"
        string_val: "Third"
        string_val: "First"
        string_val: "Third"
        string_val: "Second"
        string_val: "Third"
        string_val: "First"
        string_val: "First"
        string_val: "Second"
        string_val: "First"
        string_val: "Second"
        string_val: "Second"
        string_val: "Third"
        string_val: "Second"
        string_val: "Third"
        string_val: "First"
        string_val: "Third"
        string_val: "First"
        string_val: "Second"
        string_val: "First"
        string_val: "First"
        string_val: "Third"
        string_val: "First"
        string_val: "First"
        string_val: "First"
        string_val: "Third"
        string_val: "First"
        string_val: "Third"
        string_val: "Third"
        string_val: "First"
        string_val: "Third"
        string_val: "Third"
        string_val: "Third"
        string_val: "Second"
        string_val: "Second"
        string_val: "First"
        string_val: "Second"
        string_val: "Third"
        string_val: "Third"
        string_val: "Third"
        string_val: "Second"
        string_val: "Third"
        string_val: "First"
        string_val: "Third"
        string_val: "First"
        string_val: "First"
        string_val: "Third"
        string_val: "Third"
        string_val: "First"
        string_val: "Third"
        string_val: "First"
        string_val: "Third"
        string_val: "Third"
        string_val: "Third"
        string_val: "First"
        string_val: "Second"
        string_val: "First"
        string_val: "Third"
        string_val: "First"
        string_val: "Third"
        string_val: "First"
        string_val: "Second"
        string_val: "Second"
        string_val: "Third"
        string_val: "First"
        string_val: "Third"
        string_val: "First"
        string_val: "Third"
        string_val: "Third"
        string_val: "Second"
        string_val: "First"
        string_val: "Second"
        string_val: "Second"
        string_val: "Third"
        string_val: "Third"
        string_val: "Third"
        string_val: "Second"
        string_val: "First"
        string_val: "First"
        string_val: "First"
        string_val: "First"
        string_val: "Third"
        string_val: "Third"
        string_val: "First"
        string_val: "Second"
        string_val: "Second"
        string_val: "Third"
        string_val: "First"
        string_val: "Second"
        string_val: "Third"
        string_val: "Third"
        string_val: "First"
        string_val: "First"
        string_val: "First"
        string_val: "Third"
        string_val: "Third"
        string_val: "Third"
        string_val: "Third"
        string_val: "Third"
        string_val: "Third"
        string_val: "Third"
        string_val: "Third"
        string_val: "Second"
        string_val: "First"
        string_val: "First"
        string_val: "Third"
        string_val: "Second"
        string_val: "Second"
        string_val: "First"
        string_val: "Second"
        string_val: "First"
        string_val: "Third"
        string_val: "Third"
        string_val: "First"
        string_val: "Third"
        string_val: "Third"
        string_val: "Second"
        string_val: "Third"
        string_val: "Second"
        string_val: "Third"
        string_val: "Third"
        string_val: "First"
        string_val: "First"
        string_val: "Third"
        string_val: "Third"
        string_val: "First"
        string_val: "Second"
        string_val: "First"
        string_val: "Third"
        string_val: "Third"
        string_val: "Third"
        string_val: "Third"
        string_val: "Second"
        string_val: "Third"
        string_val: "Second"
        string_val: "Third"
        string_val: "First"
        string_val: "Second"
        string_val: "First"
        string_val: "Third"
        string_val: "Third"
        string_val: "First"
        string_val: "Third"
        string_val: "First"
        string_val: "Third"
        string_val: "Second"
        string_val: "Third"
        string_val: "Third"
        string_val: "Third"
        string_val: "Third"
        string_val: "Third"
        string_val: "Third"
        string_val: "First"
        string_val: "Third"
        string_val: "Third"
        string_val: "Third"
        string_val: "Second"
        string_val: "Third"
        string_val: "Second"
        string_val: "Third"
        string_val: "Third"
        string_val: "First"
        string_val: "First"
        string_val: "Third"
        string_val: "Third"
        string_val: "Second"
        string_val: "Third"
        string_val: "Third"
        string_val: "Second"
        string_val: "First"
        string_val: "Second"
        string_val: "Second"
        string_val: "Third"
        string_val: "Third"
        string_val: "First"
        string_val: "First"
        string_val: "Third"
        string_val: "Third"
        string_val: "Second"
        string_val: "Third"
        string_val: "Third"
        string_val: "First"
        string_val: "First"
        string_val: "Third"
        string_val: "Third"
        string_val: "First"
        string_val: "Third"
        string_val: "First"
        string_val: "First"
        string_val: "Third"
        string_val: "Second"
        string_val: "First"
        string_val: "Third"
        string_val: "First"
        string_val: "First"
        string_val: "First"
        string_val: "Third"
        string_val: "Third"
        string_val: "First"
        string_val: "Second"
        string_val: "Third"
        string_val: "Third"
        string_val: "Second"
        string_val: "Second"
        string_val: "First"
        string_val: "Second"
        string_val: "Second"
        string_val: "Third"
        string_val: "First"
        string_val: "Third"
        string_val: "Second"
        string_val: "Second"
        string_val: "Second"
        string_val: "First"
        string_val: "Third"
        string_val: "Third"
        string_val: "First"
        string_val: "First"
        string_val: "Third"
        string_val: "First"
        string_val: "Second"
        string_val: "Third"
        string_val: "Third"
        string_val: "Third"
        string_val: "Second"
        string_val: "Third"
        string_val: "Third"
        string_val: "Third"
        string_val: "Third"
        string_val: "Third"
        string_val: "First"
        string_val: "First"
        string_val: "Third"
        string_val: "Third"
        string_val: "Third"
        string_val: "Second"
        string_val: "Third"
        string_val: "Third"
        string_val: "Third"
        string_val: "First"
        string_val: "First"
        string_val: "Third"
        string_val: "Third"
        string_val: "Third"
        string_val: "First"
        string_val: "Third"
        string_val: "Second"
        string_val: "Third"
        string_val: "First"
        string_val: "Third"
        string_val: "Second"
        string_val: "First"
        string_val: "Third"
        string_val: "Third"
        string_val: "Third"
        string_val: "Second"
        string_val: "Second"
        string_val: "First"
        string_val: "Third"
        string_val: "First"
        string_val: "Second"
        string_val: "First"
        string_val: "Third"
        string_val: "Third"
        string_val: "Second"
        string_val: "Third"
        string_val: "First"
        string_val: "Third"
        string_val: "Second"
        string_val: "Third"
        string_val: "First"
        string_val: "Third"
        string_val: "Third"
        string_val: "Third"
        string_val: "Third"
        string_val: "Third"
        string_val: "Third"
        string_val: "Third"
        string_val: "Third"
        string_val: "Third"
        string_val: "First"
        string_val: "Third"
        string_val: "Third"
        string_val: "First"
        string_val: "Second"
        string_val: "First"
        string_val: "Third"
        string_val: "Third"
        string_val: "Third"
        string_val: "Third"
        string_val: "Second"
        string_val: "First"
        string_val: "Third"
        string_val: "First"
        string_val: "Third"
        string_val: "First"
        string_val: "First"
        string_val: "Third"
        string_val: "Third"
        string_val: "Second"
        string_val: "Second"
        string_val: "Second"
        string_val: "First"
        string_val: "Third"
        string_val: "Third"
        string_val: "First"
        string_val: "First"
        string_val: "Third"
        string_val: "Second"
        string_val: "Third"
        string_val: "Third"
        string_val: "Third"
        string_val: "Third"
        string_val: "Third"
        string_val: "Second"
        string_val: "Third"
        string_val: "First"
        string_val: "Third"
        string_val: "Third"
      }
    }
  }
}
node {
  name: "normalize_element/component_2"
  op: "Const"
  device: "/device:CPU:0"
  attr {
    key: "_output_shapes"
    value {
      list {
        shape {
          dim {
            size: 627
          }
        }
      }
    }
  }
  attr {
    key: "dtype"
    value {
      type: DT_STRING
    }
  }
  attr {
    key: "value"
    value {
      tensor {
        dtype: DT_STRING
        tensor_shape {
          dim {
            size: 627
          }
        }
        string_val: "Third"
        string_val: "First"
        string_val: "Third"
        string_val: "First"
        string_val: "Third"
        string_val: "Third"
        string_val: "Third"
        string_val: "Second"
        string_val: "Third"
        string_val: "Third"
        string_val: "Third"
        string_val: "Third"
        string_val: "Third"
        string_val: "Second"
        string_val: "Third"
        string_val: "Third"
        string_val: "Second"
        string_val: "First"
        string_val: "Third"
        string_val: "Third"
        string_val: "First"
        string_val: "Third"
        string_val: "Third"
        string_val: "First"
        string_val: "First"
        string_val: "Third"
        string_val: "Second"
        string_val: "First"
        string_val: "First"
        string_val: "Third"
        string_val: "Third"
        string_val: "Third"
        string_val: "Second"
        string_val: "Third"
        string_val: "Second"
        string_val: "Third"
        string_val: "Third"
        string_val: "Third"
        string_val: "Third"
        string_val: "Third"
        string_val: "First"
        string_val: "Second"
        string_val: "First"
        string_val: "First"
        string_val: "Second"
        string_val: "Third"
        string_val: "Third"
        string_val: "Third"
        string_val: "First"
        string_val: "First"
        string_val: "Third"
        string_val: "Third"
        string_val: "Third"
        string_val: "Third"
        string_val: "Third"
        string_val: "Second"
        string_val: "Second"
        string_val: "Third"
        string_val: "Third"
        string_val: "Third"
        string_val: "Third"
        string_val: "Second"
        string_val: "Third"
        string_val: "Third"
        string_val: "Third"
        string_val: "Third"
        string_val: "First"
        string_val: "Third"
        string_val: "Third"
        string_val: "First"
        string_val: "Third"
        string_val: "First"
        string_val: "Third"
        string_val: "Third"
        string_val: "First"
        string_val: "First"
        string_val: "Second"
        string_val: "Second"
        string_val: "Third"
        string_val: "Third"
        string_val: "First"
        string_val: "Third"
        string_val: "Third"
        string_val: "Third"
        string_val: "Third"
        string_val: "Third"
        string_val: "First"
        string_val: "Third"
        string_val: "Third"
        string_val: "Third"
        string_val: "Third"
        string_val: "Third"
        string_val: "Second"
        string_val: "First"
        string_val: "Third"
        string_val: "Second"
        string_val: "Second"
        string_val: "Third"
        string_val: "Third"
        string_val: "Third"
        string_val: "Third"
        string_val: "Third"
        string_val: "Second"
        string_val: "First"
        string_val: "First"
        string_val: "Third"
        string_val: "First"
        string_val: "Third"
        string_val: "Third"
        string_val: "Third"
        string_val: "Second"
        string_val: "Third"
        string_val: "Second"
        string_val: "Third"
        string_val: "Third"
        string_val: "Third"
        string_val: "First"
        string_val: "Third"
        string_val: "Third"
        string_val: "Third"
        string_val: "Third"
        string_val: "Third"
        string_val: "Third"
        string_val: "Third"
        string_val: "First"
        string_val: "Third"
        string_val: "Third"
        string_val: "Third"
        string_val: "Third"
        string_val: "First"
        string_val: "Second"
        string_val: "Third"
        string_val: "Third"
        string_val: "Second"
        string_val: "Third"
        string_val: "Third"
        string_val: "Third"
        string_val: "First"
        string_val: "Third"
        string_val: "Second"
        string_val: "Third"
        string_val: "Second"
        string_val: "First"
        string_val: "First"
        string_val: "Third"
        string_val: "Third"
        string_val: "Second"
        string_val: "Third"
        string_val: "Third"
        string_val: "Third"
        string_val: "Third"
        string_val: "Third"
        string_val: "Third"
        string_val: "Third"
        string_val: "First"
        string_val: "Second"
        string_val: "Third"
        string_val: "Third"
        string_val: "First"
        string_val: "Third"
        string_val: "Second"
        string_val: "Second"
        string_val: "Third"
        string_val: "Third"
        string_val: "Third"
        string_val: "Second"
        string_val: "Third"
        string_val: "Second"
        string_val: "Third"
        string_val: "First"
        string_val: "Third"
        string_val: "Second"
        string_val: "Third"
        string_val: "Second"
        string_val: "Second"
        string_val: "Second"
        string_val: "Third"
        string_val: "Third"
        string_val: "Third"
        string_val: "Third"
        string_val: "First"
        string_val: "Second"
        string_val: "Third"
        string_val: "Third"
        string_val: "Third"
        string_val: "Third"
        string_val: "First"
        string_val: "First"
        string_val: "Second"
        string_val: "Third"
        string_val: "Third"
        string_val: "First"
        string_val: "Third"
        string_val: "Second"
        string_val: "Third"
        string_val: "Third"
        string_val: "First"
        string_val: "First"
        string_val: "First"
        string_val: "Third"
        string_val: "Second"
        string_val: "First"
        string_val: "Third"
        string_val: "First"
        string_val: "Third"
        string_val: "Second"
        string_val: "Third"
        string_val: "Third"
        string_val: "Third"
        string_val: "Third"
        string_val: "First"
        string_val: "First"
        string_val: "Second"
        string_val: "Third"
        string_val: "First"
        string_val: "First"
        string_val: "Third"
        string_val: "Third"
        string_val: "Second"
        string_val: "Third"
        string_val: "First"
        string_val: "First"
        string_val: "Second"
        string_val: "First"
        string_val: "First"
        string_val: "First"
        string_val: "Second"
        string_val: "Third"
        string_val: "Second"
        string_val: "Second"
        string_val: "First"
        string_val: "First"
        string_val: "Third"
        string_val: "Third"
        string_val: "Second"
        string_val: "Third"
        string_val: "First"
        string_val: "Third"
        string_val: "Third"
        string_val: "Third"
        string_val: "First"
        string_val: "First"
        string_val: "Third"
        string_val: "First"
        string_val: "Third"
        string_val: "First"
        string_val: "Second"
        string_val: "Second"
        string_val: "Second"
        string_val: "Second"
        string_val: "Second"
        string_val: "Third"
        string_val: "Third"
        string_val: "Third"
        string_val: "Third"
        string_val: "Third"
        string_val: "First"
        string_val: "Second"
        string_val: "Third"
        string_val: "Third"
        string_val: "Third"
        string_val: "Second"
        string_val: "Third"
        string_val: "Third"
        string_val: "Third"
        string_val: "First"
        string_val: "Third"
        string_val: "Third"
        string_val: "First"
        string_val: "Third"
        string_val: "Third"
        string_val: "First"
        string_val: "First"
        string_val: "Third"
        string_val: "First"
        string_val: "Third"
        string_val: "Third"
        string_val: "Second"
        string_val: "Third"
        string_val: "Third"
        string_val: "Second"
        string_val: "First"
        string_val: "Third"
        string_val: "First"
        string_val: "Third"
        string_val: "Third"
        string_val: "Third"
        string_val: "Second"
        string_val: "Second"
        string_val: "Third"
        string_val: "Third"
        string_val: "Third"
        string_val: "Second"
        string_val: "Second"
        string_val: "Third"
        string_val: "Third"
        string_val: "Third"
        string_val: "Third"
        string_val: "Second"
        string_val: "Third"
        string_val: "Third"
        string_val: "Second"
        string_val: "Second"
        string_val: "Second"
        string_val: "Third"
        string_val: "Third"
        string_val: "Third"
        string_val: "Second"
        string_val: "Third"
        string_val: "Third"
        string_val: "First"
        string_val: "Third"
        string_val: "Second"
        string_val: "Third"
        string_val: "First"
        string_val: "First"
        string_val: "Second"
        string_val: "First"
        string_val: "Second"
        string_val: "Second"
        string_val: "Third"
        string_val: "Second"
        string_val: "Third"
        string_val: "First"
        string_val: "Third"
        string_val: "First"
        string_val: "Second"
        string_val: "First"
        string_val: "First"
        string_val: "Third"
        string_val: "First"
        string_val: "First"
        string_val: "First"
        string_val: "Third"
        string_val: "First"
        string_val: "Third"
        string_val: "Third"
        string_val: "First"
        string_val: "Third"
        string_val: "Third"
        string_val: "Third"
        string_val: "Second"
        string_val: "Second"
        string_val: "First"
        string_val: "Second"
        string_val: "Third"
        string_val: "Third"
        string_val: "Third"
        string_val: "Second"
        string_val: "Third"
        string_val: "First"
        string_val: "Third"
        string_val: "First"
        string_val: "First"
        string_val: "Third"
        string_val: "Third"
        string_val: "First"
        string_val: "Third"
        string_val: "First"
        string_val: "Third"
        string_val: "Third"
        string_val: "Third"
        string_val: "First"
        string_val: "Second"
        string_val: "First"
        string_val: "Third"
        string_val: "First"
        string_val: "Third"
        string_val: "First"
        string_val: "Second"
        string_val: "Second"
        string_val: "Third"
        string_val: "First"
        string_val: "Third"
        string_val: "First"
        string_val: "Third"
        string_val: "Third"
        string_val: "Second"
        string_val: "First"
        string_val: "Second"
        string_val: "Second"
        string_val: "Third"
        string_val: "Third"
        string_val: "Third"
        string_val: "Second"
        string_val: "First"
        string_val: "First"
        string_val: "First"
        string_val: "First"
        string_val: "Third"
        string_val: "Third"
        string_val: "First"
        string_val: "Second"
        string_val: "Second"
        string_val: "Third"
        string_val: "First"
        string_val: "Second"
        string_val: "Third"
        string_val: "Third"
        string_val: "First"
        string_val: "First"
        string_val: "First"
        string_val: "Third"
        string_val: "Third"
        string_val: "Third"
        string_val: "Third"
        string_val: "Third"
        string_val: "Third"
        string_val: "Third"
        string_val: "Third"
        string_val: "Second"
        string_val: "First"
        string_val: "First"
        string_val: "Third"
        string_val: "Second"
        string_val: "Second"
        string_val: "First"
        string_val: "Second"
        string_val: "First"
        string_val: "Third"
        string_val: "Third"
        string_val: "First"
        string_val: "Third"
        string_val: "Third"
        string_val: "Second"
        string_val: "Third"
        string_val: "Second"
        string_val: "Third"
        string_val: "Third"
        string_val: "First"
        string_val: "First"
        string_val: "Third"
        string_val: "Third"
        string_val: "First"
        string_val: "Second"
        string_val: "First"
        string_val: "Third"
        string_val: "Third"
        string_val: "Third"
        string_val: "Third"
        string_val: "Second"
        string_val: "Third"
        string_val: "Second"
        string_val: "Third"
        string_val: "First"
        string_val: "Second"
        string_val: "First"
        string_val: "Third"
        string_val: "Third"
        string_val: "First"
